430 3
33 1 0
248044 248045 248046 248047 248048 248049 248050 248051 248052 248053 248054 248055 248056 248057 248058 248059 248060 248061 248062 248063 248064 248065 248066 248067 248068 248069 248070 248071 248072 248073 248074 248075 248076 248046 
248077 247587
!
"
#
$
%
&
'
(
)
*
+
,
-
.
/
0
1
2
3
4
5
6
7
8
9
:
;
<
=
>
?
@
A
B
C
D
E
F
G
H
I
J
K
L
M
N
O
P
Q
R
S
T
U
V
W
X
Y
Z
[
\
]
^
_
`
a
b
c
d
e
f
g
h
i
j
k
l
m
n
o
p
q
r
s
t
u
v
w
x
y
z
{
|
}
~
¡
¢
£
¤
¥
¦
§
¨
©
ª
«
¬
®
¯
°
±
²
³
´
µ
¶
·
¸
¹
º
»
¼
½
¾
¿
À
Á
Â
Ã
Ä
Å
Æ
Ç
È
É
Ê
Ë
Ì
Í
Î
Ï
Ð
Ñ
Ò
Ó
Ô
Õ
Ö
×
Ø
Ù
Ú
Û
Ü
Ý
Þ
ß
à
á
â
ã
ä
å
æ
ç
è
é
ê
ë
ì
í
î
ï
ð
ñ
ò
ó
ô
õ
ö
÷
ø
ù
ú
û
ü
ý
þ
ÿ
Ā
ā
Ă
ă
Ą
ą
Ć
ć
Ĉ
ĉ
Ċ
ċ
Č
č
Ď
ď
Đ
đ
Ē
ē
Ĕ
ĕ
Ė
ė
Ę
ę
Ě
ě
Ĝ
ĝ
Ğ
ğ
Ġ
ġ
Ģ
ģ
Ĥ
ĥ
Ħ
ħ
Ĩ
ĩ
Ī
ī
Ĭ
ĭ
Į
į
İ
ı
Ĳ
ĳ
Ĵ
ĵ
Ķ
ķ
ĸ
Ĺ
ĺ
Ļ
ļ
Ľ
ľ
Ŀ
ŀ
Ł
ł
Ń
ĠĠ
ĠĠĠĠ
in
Ġt
ĠĠĠĠĠĠĠĠ
er
ĠĠĠ
on
Ġa
re
at
st
en
or
Ġth
ĊĊ
Ġc
le
Ġs
it
an
ar
al
Ġthe
Ġp
Ġf
ou
Ġ=
is
ĠĠĠĠĠĠĠ
ing
es
Ġw
ion
ed
ic
Ġb
Ġd
et
Ġm
Ġo
ĉĉ
ro
as
el
ct
nd
Ġin
Ġh
ent
id
Ġn
am
ĠĠĠĠĠĠĠĠĠĠĠ
Ġto
Ġre
--
Ġ{
Ġof
om
im
čĊ
Ġ(
il
//
Ġand
ur
se
Ġl
ex
ĠS
ad
Ġ"
ch
ut
if
**
Ġ}
em
ol
ĠĠĠĠĠĠĠĠĠĠĠĠĠĠĠĠ
th
Ġg
ig
iv
ce
od
Ġv
ate
ĠT
ag
ay
Ġ*
ot
us
ĠC
Ġst
ĠI
un
ul
ue
ĠA
ow
Ġ'
ew
Ġ<
ation
()
Ġfor
ab
ort
um
ame
Ġis
pe
tr
ck
âĢ
Ġy
ist
----
he
Ġe
lo
ĠM
Ġbe
ers
Ġon
Ġcon
ap
ub
ĠP
ĠĠĠĠĠĠĠĠĠĠĠĠĠĠĠ
ass
int
ly
urn
Ġ$
av
port
ir
->
nt
ction
end
Ġde
ith
out
turn
our
ĠĠĠĠĠ
lic
res
pt
==
Ġthis
Ġwh
Ġif
ĠD
ver
age
ĠB
ht
ext
="
Ġthat
****
ĠR
Ġit
ess
ĠF
Ġr
os
and
Ġas
ect
ke
rom
Ġ//
con
ĠL
("
qu
lass
Ġwith
iz
de
ĠN
Ġal
op
up
get
ile
Ġan
ata
ore
ri
Ġpro
ĉĉĉĉ
ter
ain
ĠW
ĠE
Ġcom
Ġreturn
art
ĠH
ack
import
ublic
Ġor
est
ment
ĠG
able
Ġ-
ine
ill
ind
ere
::
ity
Ġ+
Ġtr
elf
ight
('
orm
ult
str
..
",
Ġyou
ype
pl
Ġnew
Ġj
ĠĠĠĠĠĠĠĠĠĠĠĠĠĠĠĠĠĠĠ
Ġfrom
Ġex
ĠO
ld
Ġ[
oc
Ġse
Ġle
--------
.s
',
ant
Ġat
ase
.c
Ġch
</
ave
ang
Ġare
Ġint
âĢĻ
_t
ert
ial
act
ive
ode
ost
Ġclass
Ġnot
og
ord
alue
all
ff
ont
ime
are
ĠU
Ġpr
Ġ:
ies
ize
ure
Ġby
ire
.p
Ġsh
ice
ast
ption
tring
ok
__
cl
##
Ġhe
ard
).
Ġ@
iew
ĉĉĉ
Ġwas
ip
this
Ġu
ĠThe
ide
ace
ib
ac
rou
Ġwe
ject
Ġpublic
ak
ve
ath
oid
Ġ=>
ust
que
Ġres
))
's
Ġk
ans
yst
unction
********
Ġi
Ġus
pp
one
ail
====
name
Ġstr
Ġ/
Ġ&
ach
div
ystem
ell
Ġhave
err
ould
ull
pon
ĠJ
_p
Ġ==
ign
St
Ġpl
form
put
ount
dd
ite
Ġget
rr
ome
ĠâĢ
aram
cc
Ġ*/
ER
In
les
_s
ong
ie
Ġcan
ĠV
erv
pr
Ġun
row
ber
Ġdo
ll
Ġel
Ġself
ated
ary
Ġ.
']
ud
Ġen
ĠTh
ĠĠĠĠĠĠĠĠĠĠĠĠĠĠĠĠĠĠĠĠĠĠĠ
te
_c
uct
Ġab
ork
.get
Ġ#
aw
ress
ob
Name
app
['
Ġall
ory
ition
ance
ear
Ġcont
vent
ia
Ġwill
IN
ĠĠĠĠĠĠĠĠĠ
return
Ġ</
data
Re
ple
ild
ther
Ġyour
($
Ġout
),
Ġhas
String
so
Ġup
ax
Ġdef
Ġbo
ge
alse
ON
per
ich
Ġbut
ĠĊ
Ġ_
_m
add
quest
odel
self
ery
ft
ens
////
ake
.C
Ġgo
Ġfunction
ĠK
ivate
Ġim
Ġconst
.t
Ġvoid
Ġset
ĠSystem
cri
li
ĉif
.m
ally
set
ep
âĢĻs
bo
def
Ġme
Ġ!
atch
">
ec
ĠIn
ph
Ġ|
_f
Ġvar
ence
Id
ree
ink
lect
ug
eth
Ġelse
----------------
cont
Ġso
atic
Ġlo
pro
ton
ss
own
abel
oint
ous
eld
ST
The
ĠĠĠĠĠĠĠĠĠĠĠĠĠĠĠĠĠĠĠĠĠĠĠĠĠĠĠĠĠĠĠĠ
RE
":
olor
tp
eg
key
ude
ĠSt
ound
Ġar
ener
ser
bject
essage
fer
Ġmore
ations
ents
Ġhis
Ġthey
.S
ĠY
use
ne
ish
old
_d
io
ield
Ġper
Cont
ings
####
Ġdata
Ġsa
ef
fo
Ġone
eng
Ġdis
AT
Ġname
Ġtrue
val
led
.f
Ġne
Ġend
.T
cre
ark
log
Ex
error
_id
urre
ange
Ġnull
rray
Ġmy
pan
ict
ator
View
List
ĉreturn
âĢĿ
Ġpre
Ġx
clude
arg
ov
.h
Ġ>
Ġtheir
')
irst
ick
gh
LE
OR
Ġprivate
tem
čĊčĊ
user
Ġ)
com
.A
Ġid
read
Ġwho
_b
Ġtime
Ġman
ry
========
roup
rop
public
vel
umber
ble
Ġwhich
****************
Ġany
Ġfalse
we
Ġvalue
Ġli
")
nder
gr
Ġno
param
fig
.com
Ġapp
_l
ions
.D
ĠCh
Ġabout
Ġadd
Ġsu
Ġstring
ID
Ġover
string
.l
ource
_C
Ġqu
ĠString
ca
SE
Ġro
sh
ual
Type
son
new
ern
Ġag
AR
].
Ġ?
ical
Ġdes
uth
ix
ays
Ġtype
't
ault
Ġinter
var
.b
Ġpart
.d
urrent
IT
EN
enc
(f
ra
value
cho
utton
ose
Ġ!=
ater
Ã©
reate
oll
pos
yle
ng
AL
using
ames
ates
ely
Ġwork
Ġem
inal
Ġsp
Ġwhen
.set
ĠĠĠĠĠĠ
to
quire
indow
lement
pect
ash
[i
Ġuse
.F
pec
Ġad
ove
ception
ength
include
ader
ĠĠĠĠĠĠĠĠĠĠĠĠĠĠĠĠĠĠĠĠĠĠĠĠĠĠĠ
atus
Th
itle
rit
void
().
Ġoff
Ġother
Ġ&&
ms
Ġbeen
Ġte
ml
co
nc
ervice
Ġ%
ann
ade
ĊĊĊĊ
lock
const
ponse
Ġsup
++
date
Ġacc
Ġhad
Ġbu
ĠRe
Ġwere
Ġfile
Ġwould
ĠâĢľ
ven
iss
Ġour
class
raw
Ġyear
Data
Ġval
Ġsome
fter
ys
Ġ///
round
view
Ġpe
Ġthere
Ġsaid
du
of
line
/*
duct
Ġher
ĠĠĠĠĠĠĠĠĠĠĠĠĠ
Res
Ġco
Ġcomm
ise
min
ĠĠĠĠĊ
#include
ethod
.P
ute
Ġass
Int
ask
loc
Ġlike
ody
Ġlet
load
Ġam
rol
Ġgr
yp
Ġalso
ĠIt
url
ific
ors
_P
_n
igh
Ġthan
Com
AN
UL
ating
ĠThis
ref
_S
Ġstatic
roll
Ġjust
Ġresult
ian
idth
Ġthem
der
reak
Con
://
ule
...
arch
ement
Ġ<<
ush
ense
arr
Ġinto
cess
amp
ied
ument
Ġ\
],
wo
als
Ġwhat
anc
Value
='
olum
Ġpos
ages
ayer
Ġsc
ues
_T
Ġlist
(s
Ġcase
Ch
ĉĉĉĉĉ
////////
ponent
Ġz
Ġkn
let
DE
red
Ġfe
Ġ,
(t
Ġfirst
word
Ġimport
Ġact
Ġchar
CT
ĠTr
ople
={
ĉf
ient
cent
.j
lection
Ġonly
Ġprint
mer
.W
ock
Ġ--
Text
Ġop
ank
Ġits
Ġback
["
Ġneed
Ġcl
Ġsub
Ġla
((
."
Object
Ġstart
file
(self
ner
ey
Ġuser
Ġent
ĠCom
its
ĠCon
ouble
ower
item
very
ĠWe
lick
ĠQ
php
ttp
':
ics
Ġunder
.L
);
ices
Ġreg
ĉpublic
SS
Ġthen
reat
ious
.G
ek
irect
heck
cript
ning
ĠUn
Ġmay
ĠWh
Bo
Item
struct
.st
ream
ible
loat
Ġorg
und
sum
_in
../
_M
Ġhow
rite
To
ww
Ġpeople
index
.n
http
(m
ector
Ġind
Ġjav
ĠHe
_st
ful
ole
Ġshould
opy
elp
ier
_name
erson
ION
ote
Ġtest
Ġbet
rror
ular
ãĢ
ĠÐ
bs
ting
Ġmake
Tr
Ġafter
arget
RO
olumn
rc
_re
define
Ġright
right
day
Ġlong
[]
(p
td
cond
ĠPro
Ġrem
ptions
vid
.g
Ġext
Ġ__
pace
mp
Ġmin
stance
air
action
wh
type
util
ait
<?
IC
text
Ġph
Ġfl
.M
ccess
br
fore
ersion
.re
ateg
Ġloc
ins
-s
trib
ĠInt
Ġarray
,"
Pro
(c
ession
Ġshe
"]
aph
Ġexp
erty
ĠSe
Ġpar
unc
ET
Ġread
print
Ġrel
Ġform
Ġdr
Exception
input
Ġtrans
########
order
By
Ġaw
ities
uff
play
.add
ĠâĢĵ
Ġwant
Ġcomp
ments
Ġ||
az
be
Ġnumber
Ġrequire
ĠEx
Ġcol
Ġkey
ember
Ġtwo
Ġsize
Ġwhere
UT
result
ĠĠĠĠĠĠĠĠĠĠĠĠĠĠĠĠĠĠĠĠĠĠĠĠĠĠĠĠĠĠĠ
ough
orld
ood
uch
ative
ger
arent
Ġ/*
Ġarg
Ġwhile
(this
Ġrec
Ġdif
State
Ġspec
ride
_F
Ġlook
AM
ility
eter
âĢĻt
ĊĊĊ
ayout
--------------------------------
ager
Ġcould
Ġbr
ends
ures
Ġknow
ets
ĠIf
ĠSh
.w
back
Ġser
Ġ+=
Ġfr
Ġhand
Ind
ULL
Im
Ġmost
Ġtry
Ġnow
rough
ackage
Ġhim
._
ify
Ġbreak
ren
#define
itt
Ġap
ĉc
(n
ĠYou
-m
Ġevery
ustom
lient
ocument
cription
Error
-b
Ð¾
][
trans
Ġpoint
Ġstd
Ġfil
Time
Ġmod
Ġ->
Ġerror
ah
Ġtext
roller
lose
ql
Ġpol
></
Ġshow
User
ased
Ġfind
Ð°
ED
span
enu
Ġcurrent
Ġused
cept
clud
Ġplay
Ġlog
ution
fl
Ġsee
indows
Ġhelp
Ġthese
Ġpass
Ġdown
Ġeven
ason
uild
from
(d
Ġbl
label
else
Ðµ
Ġ(!
ized
(),
Ġob
Ġitem
ump
UR
orn
Ġdon
Se
man
ample
tn
================
He
gram
Ġdid
wn
_h
iver
Ġsm
Ġthrough
ĠAn
che
Ġinv
ouse
Ġes
ĠNew
export
mary
uto
ler
Ġlast
Ġevent
try
ï¼
ily
igned
ines
ollow
icense
sole
lear
(int
Ġagain
Ġhigh
html
Index
uthor
Ġline
Event
_D
Ġdoes
itial
Ġcr
ars
Ġtem
cause
face
Ġ`
_A
Button
ature
ected
ES
ister
ĉĊ
Ġbefore
ale
other
Ġbecause
roid
Ġed
ik
reg
ĠDe
Ġdist
Ġstate
Ġcons
rint
att
Ġhere
ined
Ġfinal
Ġ""
Key
LO
Ġdel
pty
thing
ĠAnd
Ġrun
ĠX
ym
.app
Ġvery
ces
_N
ared
ward
list
ited
olog
itch
Box
ife
Ġac
Ġmodel
Ġmon
Ġway
lete
Ġcall
Ġatt
Ġcal
vert
Ġdec
lease
oun
fr
formation
etail
Ġnum
aj
query
Ġwell
Ġobject
ĠAs
Ġyears
Color
IS
Ġdefault
Wh
Ġins
aint
Ġjava
Ġsim
ĠAr
mon
til
):
Set
atter
Ġview
Ġpres
array
We
At
Ġbel
Ġmany
Man
ender
Ġbeing
Ġgood
ĉĉĉĉĉĉ
ational
ware
.log
Ġusing
_B
Ġ:=
_w
ists
lish
Ġstud
ĠAl
Ġgu
config
uring
time
oken
amespace
Ġrequest
Ġchild
ĠÃ
lob
Ġparam
Ġecho
function
********************************
ps
Element
alk
lication
by
Size
rawing
Ġperson
ĠĠĠĠĠĠĠĠĠĠĠĠĠĠĠĠĠ
\n
object
ince
En
File
uf
ffect
AC
Ġstyle
summary
Ġque
_r
Ġ($
Model
ident
Ġmethod
IL
ott
less
ING
Ġ()
Ġexpect
ync
package
urs
Ġprot
./
pre
ma
Ġsur
Ġfound
Info
par
imes
.e
ains
Ġpost
-d
olean
Ġsl
PE
Ġsuch
select
ainer
Ġthink
Ġdiffer
.r
FF
ool
plate
qual
ĠFor
Ġmuch
uc
(new
odule
Ġsom
Ġhttp
ĠList
Ġcount
Ġinst
char
mit
.id
aking
Ġgener
px
vice
_data
ĠNULL
idd
ãĢĤ
Ġmed
org
ider
ache
work
Ġcheck
ween
Ġ((
the
ants
><
.B
-c
Ġopen
Ġest
ĠĠĠĠĠĠĠĠĊ
Ġnext
IM
ÑĤ
OT
Ã³
Ġfollow
content
ĠĠĠĠĠĠĠĠĠĠĠĠ
Ġinclud
HE
ĠRes
Ġhref
Ð¸
Ġcar
ypes
image
Un
Ġbool
AD
Ġgame
.Form
rows
*/
velop
.Drawing
Ġpath
ision
Ġeach
ĠPl
_type
Path
nection
Ġav
').
Ġsupport
ENT
rem
").
Ġown
Ġcor
count
miss
ually
Ġmem
std
ience
search
Form
Ġsex
ename
Ġsign
Ġet
ĠĠĠĠĠĠĠĠĠĠ
','
ĠApp
Ġthose
off
Ġerr
Ġsystem
Ġbest
code
Ġsame
Ġdi
uss
Ġcreate
ather
Array
.in
fe
Service
UN
ats
ĠZ
alth
Ġmade
true
AB
Ġmark
rid
ified
yn
press
Ġgroup
Ġfin
ĠLicense
Field
eger
Ġworld
iness
ty
Ġprocess
(b
Ġcre
arn
ives
Ġmain
ideo
_g
AG
valid
img
PI
Ġcolor
Ġreport
Ġtake
rib
OM
Ġday
Request
Ġsk
bers
ĉs
.Add
oot
Image
Ġcomple
ollection
Ġtop
Ġfree
AS
De
ĠOn
IG
eta
Date
Ġaction
Over
itor
ĠĠĠĠĠĠĠĠĠĠĠĠĠĠĠĠĠĠĠĠĠĠĠĠĠĠĠĠĠĠĠĠĠĠĠ
not
Ġindex
her
icon
On
ivity
mand
.Windows
OL
Ġreal
Ġmax
land
....
raph
Ġbuild
leg
assword
âĢ¦
ook
uck
Ġmessage
test
ivers
Ġinput
Ġart
Ġbetween
Get
enter
ground
ene
Ã¡
.length
Node
(i
Class
for
ĠâĢĶ
ten
oin
Ġke
ui
ĠIN
Ġtable
sub
ĠLe
Ġhead
Ġmust
////////////////
.util
Context
Ġorder
Ġmov
over
Ġcontin
Ġsay
static
.Text
ĠclassName
pany
Ġter
head
rg
Ġproduct
This
.âĢĿ
ĠBut
loy
Ġdouble
sg
Ġplace
.x
message
Ġinformation
private
Ġoper
ced
db
"></
Param
icle
Ġweek
Ġprop
table
idget
place
Prop
ĠAll
els
box
.R
ĠTo
iter
Sh
uration
older
_list
come
Ġsw
ization
ĉfor
bl
Ġprogram
(e
ape
check
.Forms
Ġund
ategory
ags
Ġresponse
US
request
Ġstruct
escription
Ġcode
_H
uffer
Ġwithout
lobal
Manager
ilter
PO
ĉthis
option
Ġsol
Ġ===
akes
Controller
Message
Ġref
ever
ĠSo
aining
.append
Ġstill
Ġprovid
Ġassert
med
Ġcap
usiness
Ġrep
tings
ved
.N
api
OD
Ġfield
iven
oto
âĢľ
col
(x
ght
Result
Code
.is
link
Ġcour
An
Ġteam
ĉint
ift
Ġsecond
Ġgoing
Ġrange
_E
ness
Ġfam
Ġnil
ĠCont
ailable
utes
atab
Ġfact
Ġvis
(&
ĠAN
Al
title
Ġandroid
CE
\"
irt
Ġwrit
Ð½
ĉm
ftware
ond
Ġret
osition
Ġhome
Ġleft
args
meric
Ġdirect
oci
Pl
As
ret
ado
Of
chn
ĠGet
ee
ross
();
____
.ph
It
oute
Ġexper
chool
www
},
Ġallow
ĠÂ
())
size
ism
ai
tract
ane
context
Ġbeg
CH
Ġpage
hip
no
core
sp
Ġdifferent
iable
ĠMe
_IN
button
ĠIs
ervices
Ġca
Ġaround
App
ration
Ġrece
Ġreally
Ġimage
Ġtarget
Ġdep
opyright
tra
ingle
ital
Layout
Ġboth
Override
arm
=>
aterial
iled
Ġput
Qu
ÑĢ
ung
map
ĉĉĉĉĉĉĉĉ
Ġlevel
Component
book
creen
_RE
Ġconfig
ãģ
Or
.data
Ġdocument
","
tribute
ux
Log
ference
post
_e
Ġlocal
andom
assert
Val
lected
ina
atabase
Add
Ġcontent
.print
signed
ric
Ġfa
-f
ived
Ġquest
.ex
Ġfloat
Ġdevelop
Map
ading
Ġposs
UE
namespace
_O
ĉb
.Get
>(
json
etails
Ġtoo
Ġextends
ĠNone
Ġfore
(String
format
Ġgreat
inter
cale
Ñģ
ron
iving
Ent
ency
xt
oy
Ġmonth
Ġhapp
Ġsuper
bar
default
_de
ords
ln
ĠInd
ases
Ġtitle
Ġcontext
oh
-p
Em
Ġmet
Test
Ġlife
_v
ĠUS
UI
ocation
md
Ġ]
sw
Ġincre
script
ential
ways
.de
Ġsrc
Ġcatch
ĠAmeric
ĠĠĠĠĠĠĠĠĠĠĠĠĠĠ
Ġpay
plit
âĢĶ
Ġcoun
obj
.php
Ġchange
ething
're
aster
los
lation
ĠĠĊ
Le
Ã¤
({
ready
ĠNo
Ġposition
Ġold
Ġbook
abled
bug
Hand
isplay
aving
Ġgover
Ġversion
System
nect
response
Style
Up
angu
Ġthree
init
ero
Ġlaw
endif
Ġbase
email
(l
_V
Ġconf
ATE
Ġduring
tes
Ġconsole
ĠPr
Ġspe
ves
path
ialog
dition
_to
ards
Ġagainst
etwork
ĠPh
_L
cur
imit
With
Ġpower
ium
Ġwom
left
ources
atri
ĠIm
ĠMan
orth
${
quals
ese
_size
Ġiss
otal
-g
ique
rame
Ġwidth
erg
)(
ittle
TR
ĠThey
ences
rl
ons
Ġlabel
.y
-t
update
anel
sc
.to
Ġproject
Ã¼
Ġelement
Ġsuccess
ĉĉĊ
.sh
ram
ched
Ġdate
Ġtot
_ST
All
ification
ĉvar
Ġtri
chem
my
Ġbig
ĠAd
ĠAt
ots
num
Act
Ġmap
era
cope
.$
,âĢĿ
Ġpop
Ġfew
Ġlen
uid
eters
ules
ÃŃ
source
https
Ġdem
Ġear
################
Ġmatch
ories
aces
ĠCl
Ġnode
irc
local
unity
Ġanother
<<
ogle
Ġsit
ework
TE
.I
NS
ology
ought
.Cont
>>
Ġcare
state
ĉprivate
Ġeffect
++)
_file
ending
Line
For
ior
ĠSc
Ġfun
.Size
ĉelse
])
start
vious
Ġ},
ours
Ġleg
Ġservice
Ġsince
iron
Label
Ġnon
Ġlos
iction
Ġfull
acter
board
gress
Ġturn
ither
.size
Ġbody
resh
eturn
(_
yles
ormal
pi
Ġsomething
!--
uint
Ġprodu
Ġstand
Ġproble
Ġavailable
mt
ĠBl
Ġ...
Ġblock
Input
Ġkeep
Count
open
Ġ['
Ġthrow
uilder
Action
Ġthings
True
Ġurl
ĠBo
printf
Ġred
js
.create
ĠOr
Status
Instance
Ġcontrol
Ġcome
Ġcustom
location
model
ĠčĊ
Ġsource
Ġeas
.out
oney
Ġawait
Ġpartic
AP
ublish
odes
_pro
ply
riter
Ġprov
Ġmill
HT
Ġchang
Ġask
ĠĠĠĠĠĠĠĠĠĠĠĠĠĠĠĠĠĠĠĠĠ
Ġoutput
Ġemail
.push
ination
atrix
Table
uccess
ĠĠĠĠĠĠĠĠĠĠĠĠĠĠĠĠĠĠĠĠĠĠĠĠĠĠĠĠĠĠĠĠĠĠĠĠĠĠĠ
Ġdisc
([
Ġbusiness
height
.html
ta
field
Ġrequired
_R
Ġgovern
lex
.,
ĠSet
urch
///
ts
af
Ġmight
istory
Str
Ġnever
Response
arse
ada
ĠHow
Ġ*)
Ġ;
Ġhard
Ad
Ġintern
used
(data
mod
annel
Ġnp
ugg
Ġcalled
body
Ġcho
(r
_set
ird
Ġ>=
Ġoptions
ĠGener
Ġheight
Point
You
ety
Click
Ġsmall
Ġide
Ġaccess
anguage
Ġprotected
Ġjob
ĠThere
Def
Ġaddress
Ġuint
Not
oo
aps
<div
ained
atur
Ġsum
-w
ĠDate
Ġlittle
Ġfri
YPE
Ġport
eh
pring
_path
Ġstatus
aim
bool
Ġappe
Ġos
.name
ension
_G
Ġupdate
Config
aff
ERR
Ġ<=
ately
#if
uction
ĠTe
Ġlink
ĠUser
.find
.org
me
Ġgiven
Out
#endif
Ġbetter
Page
Ġfeel
enn
ML
Ġalready
Ġincluding
oogle
ru
ically
prop
lean
outer
Ġalways
ording
If
orage
Ġparent
vis
ĉĉĉĉĉĉĉ
Ġgot
stand
Ġless
/s
ĠAss
apt
ired
ĠAdd
Ġaccount
ploy
Ġder
resent
Ġlot
Ġvalid
ĉd
Ġbit
ponents
Ġfollowing
_ex
SON
Ġsure
ocial
Ġprom
erties
header
.pro
Ġboolean
Ġsearch
ken
Ġorig
Ġer
Ed
EM
aut
ling
ality
ById
bed
ĉcase
ether
posit
Ġinvest
ĠOR
Ġsays
mission
AME
Ġtemp
oad
Ġrest
info
Ġinterest
Arg
Ġperform
pons
ĠView
Ġver
lib
(const
Util
Listener
arge
Ġmult
Ġdie
Ġsite
../../
EL
Ġvalues
pen
No
icro
Ġbeh
Ġ'./
acy
rec
()->
ĉĠĠĠ
"))
Content
_W
plement
Ġwon
Ġvideo
adi
point
%%
Ġgl
erved
viron
IF
uted
ãĥ
'm
Ġcert
Ġprof
Ġcell
ari
Ġplayer
ais
Ġcost
Ġhum
(R
Ġoffic
ks
.text
atures
Ġtotal
ope
Ġstat
UM
Ġload
ights
Ġclear
uro
Ġtechn
upport
IR
Ġrow
Ġseem
Ġq
Ġshort
ĠNot
ipp
Group
section
max
irl
Ġoverride
Ġcompany
Ġdone
Ġgre
.Re
Ġbelie
rist
Ġhealth
ANT
ĠBe
.value
ĠGr
ottom
Ġargs
PT
status
func
uments
-h
Number
ĠLog
erver
ament
Ġobj
inc
Ġchildren
icy
IZ
ands
ably
Ġdistrib
Ġcur
erial
Ġdays
reated
rect
-l
irm
idden
omb
Ġinitial
.js
Ġâ
Query
Ġonline
imal
.con
au
Url
control
irection
Ġinstance
ORT
ĠFr
where
Ġjavax
Ġorgan
apter
Ġreason
options
ĠMar
(a
Ġwithin
ODE
_DE
admin
ended
Ġdesign
ĠData
une
ĠFile
root
Ġcent
Ġarr
_add
len
page
,'
_str
Ġbro
ability
outh
/c
pose
irtual
earch
_url
argin
Http
Ġschool
ava
Ġconsider
.label
ĠArray
web
opt
.println
ulation
Ġfunc
PL
Ġ"\
ĠText
actory
(function
null
Ġeng
down
Ġinclude
ĠEn
ĠDr
Ġdb
!!
side
Ġinit
quired
ĠShe
Column
react
Ġann
Ġstop
Ġlater
ĠThat
ention
df
UG
ILE
Ġclient
raft
ffer
POST
elper
Ġlove
quote
oud
Ġjson
Ġable
Ġmen
AX
ĠCopyright
Ã¶
avig
req
Client
.Com
erc
ilt
pecial
_com
room
.Name
Ġgive
amb
ike
Ġcondition
client
ators
:"
Ġcopy
uture
iversity
ernal
{{
ĠCan
ounc
do
Ġocc
Ġappro
thers
ze
Ġeither
ĠFl
Ġimportant
Ġlead
attr
ART
Equal
Ġda
etch
entity
Ġfamily
adding
Ġoption
Ġexist
ica
ĠObject
've
vers
itional
output
ĠTrue
ĠOF
_time
Ġoffer
HER
egin
""
Ġwater
Ġche
ĠMy
ored
Ġstep
ances
CK
AY
à¸
struction
(C
ouch
Stream
active
ama
Entity
product
Ġgovernment
ĠID
ajor
And
Ġdisplay
Ð»
Ġtimes
Ġfour
Ġfar
Ġpresent
ĠNS
uest
Ġbas
echo
child
ifier
Handler
Ġlib
Property
translation
Ġroom
Ġonce
Ġ[]
center
================================
Ġresults
Ġcontinue
Ġtalk
_get
Ġgrow
.sw
eb
ĠPublic
OP
ecute
ols
Ġ**
Ġmass
ured
.class
omic
Ġmean
ips
Ġaut
Ġuntil
Ġmarket
Ġarea
uit
Ġlength
ĠWith
structor
event
"><
ĠSp
IV
Ġmus
iff
Ġkind
author
ounds
mb
_key
width
pository
Ġlight
uk
Row
ohn
alf
vironment
apper
ollections
Ġside
_info
Ġexample
imary
Ġwr
Ġcamp
cribe
"/
Ġmiss
way
Ġbased
Ġplan
Vis
omain
unk
Ġaway
UP
<T
OS
iod
ĠMon
âĢĻre
Ġlik
Ã§
ively
.v
imer
izer
Sub
Ġbutton
ĠUp
Ġexperience
CL
Ġrender
_value
Ġnear
URL
alt
Ġcountry
ibility
ead
Ġauthor
Ġspecific
base
(name
ones
ĠDo
Ġalong
year
Ġexpress
.'
env
Ġbegin
Ġsoftware
Ġimp
Ġwin
Ã³n
Ġthing
Trans
ĠTHE
Ġ<?
Ġwhy
Ġdoesn
ij
ging
ĉg
Ġsingle
offset
arning
ograph
ley
_count
Ġanal
create
/m
ĠReg
unch
=$
isk
Ġrights
(M
aper
.model
Ġpo
empty
artment
Ġant
ĠWhen
Ġwomen
ĠEd
Ġseason
Ġdest
Ã£
(h
Ġpossible
Ġsever
Ġbtn
Ġdidn
Ġsent
Ġenc
Ġcommand
_x
Ġrecent
olution
vector
ĠBy
ĠMay
ĠAct
»¿
Ġmoney
INT
bsite
ĉp
ï»¿
sl
attern
ĠClass
Ġtold
udio
current
Ġequ
Ġauto
ĠState
da
msg
Ġworking
Ġquery
ĠBr
Ġwindow
auth
only
ĉt
Ġleast
agn
Ġexpl
itter
aring
Ġcolumn
ĠGeneral
":"
eral
rior
Ġrecord
IB
EX
Ġdat
Ġmaking
ued
ĠCar
emp
".
ĠMed
Ġclose
Ġpercent
Ġpast
(g
:(
Ġwrite
Ġmove
Ġpat
Control
.To
Ġvi
inate
'll
aged
Null
Ġspecial
IZE
Ġcity
ĠEng
ixed
inary
py
Ġeff
ario
Ġtell
avor
Ġselect
level
imum
oper
Builder
IP
esc
Ġfont
ĠAm
ished
ills
Inter
OW
Ġcourse
Ġlate
iddle
Ġamount
Ġasync
ino
cul
Ġì
andle
_user
Ġben
ĠCal
Ġ$_
ĠRep
Ġenough
Token
.user
(j
Sc
Width
now
atform
Ġlooking
Ġhold
Module
ITY
vo
ison
.Data
yc
Ġpot
ĠTrump
idual
ides
rt
Ġproperty
ĠĠĠĠĠĠĠĠĠĠĠĠĠĠĠĠĠĠĠĠĠĠĠĠĠĠĠĠĠĠĠĠĠĠĠĠĠĠĠĠĠĠĠ
amework
go
Ġlow
Ġpara
Ġprice
ury
Ġtoday
roy
Ġ'/
Ġpolit
Ġ''
ymb
Ph
Ġadv
Ġattack
ĠSte
ROM
ana
Ġmeans
Ġstory
ids
aken
Ġmeet
Ġmom
ĠâĢĺ
Ġ?>
Ġden
obile
change
ĠĠĠĠĠĠĠĠĠĠĠĠĊ
ici
na
ĠForm
Ġsort
Select
pare
Ġthought
_con
Ġtask
ocus
ĠDE
ĠMin
Ġopt
ĉbreak
umer
KE
then
Ġdet
ĠTest
ports
Ġreview
('/
move
Ġswitch
ERT
patch
annot
ãĤ
Ġabove
itive
Ġquestion
ĠQu
gle
Ġword
Ġprovide
ĠReturn
Ġresearch
Ã£o
ustr
Ġpublish
chema
}}
ĠCON
-in
allback
Ġcover
\\
color
ĠIS
Ġwhether
imate
isc
Bar
Ġdiv
Be
ourn
Ġhaving
lem
player
abs
amera
ney
Ġexc
gether
plied
ao
[$
Ġ++
ipe
show
/d
[:
agement
lev
_ID
rary
ades
_se
ause
Ġemploy
Ġfre
Ġ'@
Ġcomplet
Ġlarge
ral
\x
Ġfac
<String
Ġcreated
uper
.state
Ġhost
eneric
/b
(!
while
ias
BUG
Ġrole
Reg
ĠColor
Start
Ġporn
top
Ġweb
Ġdev
Ġdeal
Integer
position
.on
Ġ("
Ġproblem
sv
Ġpress
ABLE
ATION
ĠSee
anch
Ġthough
leep
Ġ<!--
Ġpoints
ĠĠĠĠĠĠĠĠĠĠĠĠĠĠĠĠĠĠĠĠĠĠĠĠĠ
.J
Ġ::
ptr
DB
.png
node
soft
pond
Ġever
----------------------------------------------------------------
Menu
('#
Ġservices
pg
params
Ġactually
Ġ"/
Empty
Method
Ġident
unic
Ġmillion
Ġaff
style
Ġconc
ios
ignment
ULT
Pr
Ġunderstand
uary
Ġhappen
Ġserver
ĠCo
SC
Ġles
Ġfiles
Grid
sql
Ġoften
Ġinfo
_tr
src
ony
Ġspace
umb
Ġpassword
Ġstore
ĠWhat
ged
ĠFalse
Us
swer
_index
Ġformat
most
sm
New
Ġdetails
Ġprob
ĠAND
ilar
Ġ${
rypt
.Collections
$this
ĠFree
_of
(false
dated
Ġ>>
Ġface
CTION
Ġsave
Ġtyp
dev
("#
AGE
container
edit
QL
Ġitems
Ġsocial
ien
ĠReact
Ġmar
Ġredu
ĠRE
.put
Ġmajor
Cell
next
Ġexpected
Ġyet
Ġindiv
tributes
atis
amed
Ġfood
Source
(string
ites
dr
Ġmembers
Ġcomb
items
ĠPer
TH
=True
Ġbar
_SE
comm
(w
Ġsend
Ġinc
unsigned
FA
Ġparams
apping
ros
ugin
fa
Ġconnection
Ġbecome
Mode
Ġev
Ġdiff
ĠUnited
Height
fully
images
Ġmakes
Ġglobal
Ġcontact
Ġabs
float
Ġexcept
ĠPol
Child
typ
Ġcertain
iÃ³n
OUT
Ġimpro
iles
ĠPart
values
oss
/**
ilit
ĠEvent
curity
ster
Ġcharacter
Ġnews
Ġ",
Ġdevice
cel
login
heet
Default
@"
ĉĠ
click
(value
ĠAb
Ġprevious
ERROR
ocal
Ġmaterial
Ġbelow
ĠChrist
Ġmedia
cover
ĠUI
Ġfail
Ġblack
Ġcomponent
ĠAmerican
Ġadded
Ġbuy
stit
Ġcame
Ġdelete
property
oding
Ġcard
rops
Ġhttps
Ġroot
Ġhandle
CC
Back
emplate
Ġgetting
_by
mail
_sh
.assert
ĠDec
(true
Ġcomput
Ġclaim
'=>
ĠSub
Ġair
ops
nav
ements
(id
Ġenter
anged
End
Ġlocation
Ġnight
Ġdoing
ĠRed
lin
vider
Ġpick
Ġwatch
essages
Ġhuman
Ġdam
pend
dir
Ġtax
Ġgirl
reet
Ġbox
Ġstrong
(v
rel
Ġinterface
Ġmsg
fect
_at
Ġhouse
Ġtrack
je
ĠJohn
istr
(S
ube
Ġce
itted
VER
*)
parent
Ġapplication
any
.swing
Ġpack
\u
Ġpract
Ġsection
ctx
Ġunsigned
.Point
ĠOne
Ä±
iple
aid
Ñĥ
Vector
byte
Ġwait
ĠÃł
Ã¥
Ġtogether
Ġthrows
FO
'))
host
ising
.view
Ġterms
framework
-r
Ġapply
Ġsession
Options
uggest
Ġothers
witter
Ġfund
Init
__(
ensor
GET
Ġseveral
ii
[j
IO
Ġtemplate
Position
Ġecon
achine
Ġil
.spring
main
elt
iment
Rec
mm
ĠUniversity
ursor
ĠĠĠĠĠĠĠĠĠĠĠĠĠĠĠĠĠĠĠĠ
GL
icture
ithub
cer
cast
From
ales
Ġsubject
password
ny
Ġesc
.write
ï¼Į
What
.H
Ġhistory
ĠFe
Ġindividual
unit
Ġ-->
Ġdu
IST
Ġusers
fs
false
unt
Title
Ġmot
Ġfuture
ached
Ġstarted
Ġmode
Ġ'<
_array
Ġax
ires
There
ught
tml
posed
icult
Ġtook
Ġgames
Ġ}}
Ġproducts
Is
Ġbad
ĠDes
.path
ĠPost
avel
(:
Ġneeds
Ġknown
Fl
Ġexec
Ġseen
ume
Ġborder
Ġlive
temp
Per
Ġvariable
iet
ĠDef
Ġge
eme
_back
first
Ġprovided
////////////////////////////////
Ġfilename
Ġhope
uly
auto
find
_string
btn
itude
Attribute
Ġyoung
.txt
Ġwebsite
ĠProp
Ġey
ional
ARR
ictionary
urther
.</
ALL
Ġstudy
ili
Ġnetwork
yl
istance
OK
NU
rest
ĠST
icrosoft
Ġlimit
Ġcut
Ġcou
ogn
Ġsizeof
ival
Ġwent
.z
Link
Ġfire
Ġacross
Ġcommunity
region
NE
Ref
Ġofficial
Ġvisit
olve
Ġreceived
Ġtoken
Ġmonths
Ġanim
Ġparticular
styles
ico
Ġess
.Control
ĠÃ©
ball
Ġlearn
inding
Var
Ġdecl
(err
LECT
One
pha
Ġ~
fort
asure
Ġmind
ĠEnd
Check
Ġquick
"),
AND
utions
Base
________
Ġcomment
INE
âĢĻve
But
ĠEl
ĠUs
Ġadmin
mark
ĠName
ĠType
amic
pc
loor
FT
Ġopp
cket
)->
tx
Ġpur
uel
ymbol
uation
anger
Ġbackground
ecess
efined
........
Ġdescription
Ġrepresent
pression
rowser
Ġseries
wards
($_
aise
Ġhot
acity
ries
actions
Create
adio
amples
Ġoriginal
ensive
font
stream
ï»¿using
.springframework
server
Ġbill
ACK
ilename
Ġframe
Edit
adius
Ġdraw
anks
Ġdeter
Ġcomes
_int
Ġforeach
angle
Ġelect
pected
Header
istration
False
ĠGame
Ġfilter
Activity
Ġlarg
inition
Ġ"<
ised
Ġremove
ĠTrans
met
see
Format
Command
ĠEX
None
Ġfront
ASE
ĠRec
oundation
Ġvo
=\"
(*
Change
.Write
group
ients
uy
****************************************************************
Ġdig
hr
(-
Ġgen
number
vec
urope
entry
LL
Ġste
Valid
'],
_param
Ġselected
Ġaccording
ĠDis
Ġutil
Buffer
_error
Ġassoci
_SIZE
Ġwor
Ġprintf
rag
Âł
DD
ĠVal
Ġactiv
Eng
etime
Ġvirtual
aign
aur
ĠPres
ĠException
Ġanything
ĠOff
Ġhours
Ġwar
Args
aging
Ġmodels
ĠTime
Ob
ams
joy
Ġearly
.read
Ġcenter
ĠInitial
Ġlanguage
length
xy
Ġsn
Ġinf
Post
Ġago
Ġeasy
_code
ĠANY
_ch
Ġdownload
(T
aved
âĢĵ
Ġstudents
Ġfig
light
xx
Ġbuffer
ĠDep
ĠMath
ITH
Ġvari
Ġdue
Factory
Ġpor
Ġep
otype
Ġcannot
Ġwhite
<int
tern
Ġregister
Ġpred
clus
_date
Ġ/**
Ġauth
Ġperiod
nown
Ġvot
Ġscreen
'd
Types
Ġtmp
ural
Ġbenef
_y
Ġnet
ĠStates
']['
ĠNe
ĠNOT
Ġneg
Ġcommon
scope
Ġcred
ges
_TYPE
Ġsuggest
oom
Ġaccept
Ġrandom
erm
ĠVector
with
TER
(str
Ġrespons
Ġhit
.Set
grid
ria
Ġclick
undle
Case
insert
Utils
Ġ"""
Ġimplement
atal
tempt
template
ocr
returns
Ġplayers
users
edef
ĠThese
Ġamong
Ġdeb
ha
.getElement
Ġcirc
Ġanswer
Ġwalk
Ġtreat
ĠGe
ĠCreate
Ġage
Ġreq
OST
angular
Ñı
Ġfive
Ġdistributed
Ġfriend
TP
Ġclean
ows
.Controls
dis
Ġwords
.io
zy
Ġheader
ĠCheck
âĢĻm
just
holder
="<?
ĠGNU
ĠCol
imest
entic
Ġtre
last
la
ĠYork
Lo
Ġdiscuss
ĠGod
Ġissue
rew
Window
Ġland
Ġstream
ĠPar
Ġquality
Par
_num
Ġsal
elves
ORD
(user
Ġworks
Ġhalf
enses
vas
Ġpolice
("/
ua
Ġsimple
Address
Ġempty
esh
Update
ĠCreated
('.
ĠĠĠĠĠĠĠĠĠĠĠĠĠĠĠĠĠĠ
Ġagre
ĠFROM
Ġcook
Ġeverything
ilities
.status
Ġrelations
extern
Ġnothing
Ġrunning
ĉvoid
RI
_a
_CON
por
.sub
require
ĠCity
ĠWest
Ġmor
store
Equals
oder
Ġna
Ġ[[
Ġ('
ĠDon
ERS
/p
.json
abor
Ġsomeone
_text
.css
.Tab
ĠSome
ato
double
Ġshare
(void
_dir
Ġur
Stack
ĠWorld
.X
stract
How
.Generic
icles
Ġentry
Ġchanges
Ġpersonal
(A
Ġoffset
_ptr
Ġpie
ĠJan
-group
module
Items
ĠHowever
verage
.Font
Ġevents
.min
Ġinvol
za
Ġwhole
Ġneeded
Ġlikely
rief
ORM
version
Ġfight
Ġein
Frame
gen
ĠOut
avigation
Length
illed
quence
Ġ!==
ĠSoftware
Ġwriting
Ġrate
Panel
inner
Ġ["
Ġtw
cd
_state
ĠSm
ĠMark
prot
ĠMr
method
ustomer
Icon
Ġcorrect
(object
ĠMore
Ġfall
Ġvol
Ġdevelopment
ently
Ġsi
medi
ving
PP
aker
Ġindu
Ġelif
Ġpret
Ġbelieve
ns
omet
ĠIntern
Rect
So
.error
Read
Ġfeatures
Ġminutes
---
asing
cret
.annot
Ġcollection
'.
Ġsimilar
Ġtaken
("%
Order
-md
ĠTH
aced
Ġisn
/j
Ġson
graph
ĠInteger
Ġnecess
reen
Ġum
Ġ\<
Ġmoment
Ġbring
Ġindic
ysis
Level
verse
urrenc
_test
Ġentire
Down
(result
ĠRead
Ã¨
Mod
Ġtrying
Ġmember
ĠCor
ODO
-control
untime
ĠSim
Dialog
plot
_on
Ġphys
}/
Ġnamespace
ĉčĊ
acc
Player
ARE
Ġfoot
Ġboard
part
Ġsus
wise
ĠMc
Ġpush
ATA
Ġplease
ried
weet
bit
ided
VE
ĠSw
UB
Ġtypes
edia
Ġclos
acebook
When
Ġedit
igger
Ġenerg
Container
Ġphot
ĠCount
ĠEurope
.Is
ĠRuss
peed
ĠStr
Ġpy
Ġcult
Ġdefined
ccount
Ġobt
.Location
Ġthread
ille
Ġinstead
strong
ĠSec
URE
Ġidea
.se
emy
selected
Connection
acing
thread
.next
Ġcoll
Ġfilm
istic
Ġcompet
Ġconn
though
Ġcompan
ocket
Ġteach
=(
Ġphone
Ġactive
delete
tries
Ġmo
Ġdeath
ocol
Widget
Ġarticle
rodu
andid
Ñĭ
ĠCr
ka
():
lood
ĉĉĉĊ
Ġalmost
Ġsell
ervlet
rip
Unit
Ġapplic
Ġconnect
Ġfeature
Ġvia
'),
Ġlim
ĠĠĠĠĠĠĠĠĠĠĠĠĠĠĠĠĠĠĠĠĠĠĠĠĠĠĠĠĠĠĠĠĠĠĠĠĠĠĠĠĠĠĠĠĠĠĠ
ĠGu
Engine
Ġens
Ġenvironment
block
HERE
NULL
gy
tag
)).
exp
Ġcompl
Ġinstall
Ġcomplete
queue
atural
Ġgeneral
thon
Ġasked
ores
(res
Ġreserved
SP
ĠâĢ¦
ÅĤ
Ġsignific
Off
ĠĠĠĠĠĠĠĠĠĠĠĠĠĠĠĠĠĠĠĠĠĠĠĠĠĠĠĠĠ
ĠAg
ĠJust
ĠError
Ġinfl
adata
Ġicon
asks
''
_LO
?.
account
Ġ(*
rap
_var
ĠFOR
Ġparty
ĠYour
cat
stry
.new
boot
ĠNov
Ġvector
Ġnormal
Ġfurther
Repository
Ġdatabase
attle
Ġmusic
Ġspeed
Ġdoc
process
IGHT
.parse
Ġtaking
Ġviol
ceed
ĠAfter
Ġforward
Ġcrit
rot
Ġfailed
efore
Ġconcern
oe
ba
Ġsender
Ġterm
has
="#
Ġpotential
Num
Ġpublished
.close
ĠImage
straint
UD
ĠOb
Ġprobably
lim
olume
Ġconsum
ague
ensions
Ġinvestig
-year
');
-sm
Ġenjoy
orig
ering
cp
leased
plements
Ġreturns
pat
BO
ĠHouse
.Label
Ġweight
ighb
Ġconditions
Ġexception
description
Ġtrad
-to
Ġ{}
Ġmodule
END
.ap
.props
Ġconstructor
aves
Ġfavor
ĠNow
;i
ĠMain
_k
eries
âĢĻll
transform
imestamp
Pre
Ġmer
.res
stant
Location
_NAME
Ġloss
ĠĊĊ
net
Ġengine
Block
Ġissues
Ġparse
ĠBar
Ġstay
ĠJSON
Ġdom
airs
wner
Ġlower
ĠDem
ufact
Ġps
Ġperfect
RL
Ġeduc
ls
emory
ARRANT
uge
Ġexact
.key
alled
ech
ief
\/
oke
Ġformer
alloc
Ġsix
ida
Ġmargin
Ġheart
ald
pack
.getElementById
ĠWARRANT
Ġrather
Ġbuilding
erman
lice
Ġquestions
izes
lege
irectory
Ġje
Ġcas
props
utf
Ġsecurity
Ġhowever
weight
Ġinside
Ġpresident
Char
ĠWITH
.map
Ġgraph
Ġtag
_status
Ġattempt
opp
uses
ĉconst
Ġround
,$
Ġfriends
Email
?>
Resource
KEY
osp
.query
ĠNorth
ables
istrib
_class
ello
That
Ðº
pecially
ĠPresident
Ġcampaign
Ġalt
area
Ġchall
Ġopport
.Con
Ġenergy
like
.string
ington
)*
yy
Ġprofession
irth
Ġseg
Ġhor
iers
can
Ġbehind
Product
fg
ĠSk
.jpg
?:
Ġcallback
ĠHttp
ÑĮ
long
MS
ATH
Ġraise
Ġwanted
rown
utor
lt
]=
eline
MA
Ġsepar
cs
semb
Dis
bserv
ĠWill
Ġpolicy
Ġthird
phone
Ġbed
/g
.__
ĠInc
izing
.remove
instance
.type
Ġserv
Each
Ġhar
ĠMessage
(key
SELECT
Pos
Ġrecomm
Ġtraining
ĠEnt
ĠChar
icht
(file
Ġprior
Game
Ġexit
Params
.core
PC
nes
anced
(request
Password
Ġmag
Ġrelease
Ġshall
udent
ĠSouth
ando
:'
.TabIndex
sk
anner
isset
Ġoutside
ledge
ĠRob
Ġimm
ĠWeb
Des
BC
ancial
Route
Dec
ferences
Ġpurch
ĠModel
ctor
gn
_start
_un
.*
ises
Ġground
Ġunique
Ġbeaut
{"
Ġpour
ĠOct
Ġtree
sets
_res
')->
_reg
("\
Ġbyte
Bl
Ġdating
Ġmatter
ĠRem
Ġ'../
ĠAug
ĠLa
Ġ$(
ournal
iam
Ġshows
write
Ġball
Ġsimply
Ġfast
Ġmemory
ASS
ĠOf
oved
ante
aul
istry
Ġfit
<string
Ġpolitical
ancel
_.
card
.current
och
_image
\t
(L
Ġindustry
coming
Ġextra
Ġreported
.start
Ġresources
Ġimg
flow
_EX
(null
ĠPre
Ġwrong
interface
Parameter
ners
á»
ture
ersist
ountry
Ġseems
alance
dest
ĉString
Ġmaint
Ġunit
acters
ĠTR
iful
exports
project
Application
legate
Ġtakes
term
Ġetc
uster
Ġappear
address
Ġfem
hs
Ġhom
,-
Ġdifficult
Ġcoming
Open
Ġsettings
ĠWar
ĠThen
Ġautom
ĠFoundation
Ġquite
Description
Ġblog
iqu
PS
_field
Json
SSION
ĠSch
ĠLO
Ġdescri
Ġeveryone
Ġpretty
Ġlonger
Ġmenu
Ġcurrently
sec
Ġrelationship
################################
ĠMap
aset
Ġparameters
Ġcrush
ILITY
igration
Ġcout
total
Ġnames
ndef
");
riend
ynamic
Ġeffort
Ġactual
Ġfields
OUN
ters
Ġfix
_model
Ġcases
CA
My
Interface
ĠSE
]]
alle
ĠNational
ĠArrayList
inline
.V
ara
refix
asc
Reader
ĠÐ¿
astic
(()
Cl
.annotation
Ġperformance
aily
.toString
.net
views
.end
ayers
late
ĠApr
ederal
'])
.body
Ġhigher
_fl
cr
alert
_node
ĠGoogle
Ġitself
Auth
urrency
Ġsignificant
append
Ġrespect
strap
Ġuna
riteria
PORT
.apache
Output
Ġprogress
Ġmid
ĠMicrosoft
Ġresource
ablish
Ġdim
.load
.App
Ġdirection
Ġadditional
ĠĠĠĠĠĠĠĠĠĠĠĠĠĠĠĠĠĠĠĠĠĠĠĠ
Ġnumbers
Ġcompanies
.Th
Ġsound
username
Ġstatement
Ġalert
Ġcontract
home
_length
.Component
ev
.Ex
ï¼ļ
";
ĠHigh
ĠPoint
oph
Ġlines
->_
ox
application
ĊĊĊĊĊĊ
Ġsoon
ctions
inger
Ġjoin
ĠPe
Ġë
Ġlas
.E
css
/or
ĠStart
ĠTO
Ġsubs
conn
components
DEBUG
quare
Function
endar
.index
Ġfill
ÄĻ
Ġchoose
how
ĠAmerica
assets
------------
ĠValue
Ġoffice
Ġveh
Ġtransform
ĠArt
Ġinde
Ġfn
Ġimplements
ango
plete
+"
tmp
amily
Ġhash
missions
EST
gt
Provider
ĠĠĠĠĠĠĠĠĠĠĠĠĠĠĠĠĠĠĠĠĠĠ
Ġflag
Ġparticip
den
ĠReturns
Ġnote
Ã¼r
pm
ideos
Ġspecified
ĠEN
ester
olid
Ġupon
(std
ĉv
Ġ'\
uz
Ġvert
Ġvict
ĉself
Ġ"$
.k
Ġgroups
github
lang
Ġmut
TO
Ġve
ĠPlease
access
Ġ{"
rea
Ġrisk
icker
oggle
ĉwhile
ANG
.send
Ġwoman
Ġgets
Ġign
ĠId
_log
ONE
Ġevid
ĠHar
_sub
Ġendl
Ġincluded
ĠAp
igr
Ġsem
ĠBlack
doc
_table
ĠĠĠĠĠĠĠĠĠĠĠĠĠĠĠĠĠĠĠĠĠĠĠĠĠĠĠĠĠĠĠĠĠĠĠĠĠĠĠĠĠĠĠĠĠĠĠĠĠĠĠĠĠĠĠĠĠĠĠĠĠĠĠĠ
-up
Ġcause
Ġ..
Ġvan
_dict
Ġfocus
IND
CESS
.Log
Ġmultiple
ido
Ġregard
-M
andler
ourse
Ġdeg
.U
Ġaddition
Ġvarious
Ġreceive
ÐµÐ½
ĠHT
Obj
DF
Ġincrease
ĠOpen
];
Ġcommit
ategories
atory
ship
ĠMich
Ġhtml
romise
Ġleave
Ġstrateg
aven
ĠConsole
known
-n
_LE
.component
Ġbre
Session
iance
Ġalign
typedef
_result
ĠWHERE
.split
Ġreading
FAULT
Ġclo
Ġnotice
_pr
arter
Ġlock
Ġstandard
etic
ellow
Ġpadding
ĠHis
Ġstates
_cast
(P
aa
Ġinternal
ean
ĠPRO
ĠKey
Ġespecially
ming
Ġcross
Ġnational
_object
filter
Ġscript
.update
_i
ĠAssert
/core
%%%%
Ġproblems
istor
Ġ.=
Ġarch
Ġwritten
Ġmilit
MENT
.ch
cape
ĠMus
_config
ĠAPI
foot
Ġimages
endl
.In
First
Ġplatform
.prot
Option
ste
ĠTODO
Ġforce
.cont
ĉecho
ĠDav
Ptr
(B
RT
ĠBase
]['
Ġannounc
console
ĠPy
ds
.as
Ġprevent
apan
Ġ{'
}</
ĠService
ĠSen
ador
profile
Top
Ġiter
po
IES
JSON
IE
iant
ãĢģ
_j
ĠSept
_map
bum
(context
ĠHome
ians
GB
Ġliving
Ġpattern
(input
icient
Core
Ġentity
Ġinteg
Changed
Ġuseful
.info
Ġtool
(item
Ġok
Ġfeed
IX
Ã©s
ĠNews
remove
erry
ĉĉĉĉĉĉĉĉĉ
ipment
ares
Do
Current
.content
.Group
ustral
ĠÑģ
})
Ġpopular
Ġstre
Ġmethods
_ERROR
Left
cal
bsp
.ToString
Ġdir
Ġallowed
Ġimpact
.config
Ġelements
Ġprote
Ġtrain
.tr
rs
ĠRepublic
ĠTask
aries
(D
(get
Ġrelated
Ġvers
Ġsil
Ġcmd
Ġtechnology
.width
Float
ĠUse
Body
should
.join
Font
llum
ycle
ĠBrit
Ġmit
Ġscale
Ġ(_
ernel
Ġscore
/v
Ġstudent
UC
.show
Ġaverage
Enabled
(ex
common
imation
:@"
chie
river
ĠMarch
category
fin
Ġcourt
Ð²
Server
Ġcontainer
-st
_for
Ġparts
Ġdecision
obs
oub
mitted
Ġ$('#
Ġsaw
Ġapproach
ICE
Ġsaying
Ġanyone
meta
SD
Ġsong
display
Oper
outes
Ġchannel
Ġchanged
Ãª
Ġfinally
_number
Please
à¤
oring
-re
Ġkill
Ġdrug
window
Ġconvert
ombre
Ġways
Helper
ĠFirst
(__
urity
ĠWindows
ees
Ġmat
rapper
Ġplus
anges
"].
azon
/t
lat
aste
Ġprofile
Ġready
#ifndef
rote
Ġsense
Gener
ĠConfig
omy
ĠJune
Ġlatest
Ġsaf
Ġregion
Ġdeep
witch
ĠPark
}`
ĠFrom
II
Ġcv
Ġreach
Ġcounter
ĠWork
ĠURL
ĠUpdate
Ġimmedi
close
ados
ferred
Ġweeks
urg
Ġdamage
Ġlost
ani
_lo
Ġhimself
Ġdog
ï¿
pir
tt
Ġpaper
Ġthems
second
Ġstaff
ĠInput
"+
ĠFacebook
Ġalloc
Ġsched
ACE
Ġthemselves
ĠComponent
Ġdriver
ja
(path
Ġcategory
alls
pu
lluminate
ĠAction
.button
ĠGL
istics
Ġoil
Ġstock
>'
Ġdead
VAL
QUE
************************************************************************
Ġcharg
Return
Ġful
dom
Ġrules
Ġmodify
Ġeval
ham
atement
\<
ula
=False
RA
Ġcontains
Ġstack
mar
Ġundefined
Ass
ĠChina
vey
Ġplaying
)/
actor
Ġbottom
lier
ĠNumber
Ġcouple
DC
ĠSO
gor
.setText
success
command
Filter
ĠOur
_item
Ġctx
Ġroad
Version
case
urt
avior
ych
sembly
ĠProduct
Ġheld
afe
Ġincludes
<quote
Ġavoid
ĠFin
ĠMod
Ġtab
ano
Ã±
ipping
-e
Ġinsert
target
chan
.Model
IME
Ġmachine
avy
ĠNO
ĠInter
Ġoperation
modal
Tag
]:
Ġproduction
Ġareas
Ġren
_from
nbsp
Ġoperator
men
apped
_per
zen
(".
.save
="{{
Ġtor
(response
Ġcandid
Ġconv
ailed
ĠLib
comp
ura
ï¿½
ĠHere
Ġargument
hood
Ġestablish
ography
ĠonClick
ambda
Ġsch
Ġmovie
Ġsec
Ġactivity
Ø§
Ġsql
_all
incip
Ġprovides
Ġsys
acket
Ġwasn
Ġuses
ĠFunction
.google
ĠResult
Visible
agma
elcome
ĠSy
ĠCent
ALSE
aciÃ³n
EXT
Ġlicense
ĠLong
Ġaccom
Ġability
.height
Active
ological
oly
)),
.Se
Ġparameter
prite
ABILITY
.service
ĠGroup
_query
ĠItem
ining
Ġjud
ims
fix
inder
agram
Ġfunctions
Ġexperi
ĠEm
Ġrot
Ġpen
.btn
ĠAS
#ifdef
Ġchoice
ĠPage
_PRO
QU
antity
ÂŃ
words
Ġreadonly
Ġflex
protected
ĠAny
Ġcharacters
enced
ĠJuly
iler
Card
urance
Ġrev
.event
aly
Ġwonder
ĠPort
Ġlegal
role
Ġten
Ġgoes
MP
white
Ġreference
Ġmis
ĠProject
icks
>&
CON
Ġrepl
Ġregular
Storage
ramework
Ġgoal
Ġtouch
.widget
Ġbuilt
des
Part
(re
Ġworth
hib
game
ĠÐ²
acion
ĠWhite
(type
(`
Ġnatural
Ġinj
Ġcalcul
ĠApril
.List
Ġassociated
ĉSystem
~~
=[
Ġstorage
Ġbytes
Ġtravel
Ġsou
Ġpassed
!=
ascript
.open
Ġgrid
Ġbus
Ġrecogn
Ab
Ġhon
ĠCenter
Ġprec
build
HTML
ĠSan
Ġcountries
aled
token
kt
Ġqual
Last
adow
Ġmanufact
idad
jango
Next
xf
.a
Ġporno
ĠPM
erve
iting
_th
ci
=None
gs
Ġlogin
atives
Äħ
Ġill
IA
children
DO
Ġlevels
Ġ{{
Ġlooks
Ġ"#
ToString
Ġnecessary
ĠĠĠĊ
cell
Entry
Ġ'#
Ġextrem
Selector
Ġplaceholder
Load
Ġreleased
ORE
Enumer
ĠTV
SET
inq
Press
ĠDepartment
Ġproperties
Ġrespond
Search
ael
Ġrequ
ĠBook
(st
Ġfinancial
icket
_input
Ġthreat
(in
Strip
ìĿ
Ã§Ã£o
Ġevidence
));
ĠBro
Ġou
buf
Script
dat
Ġrule
#import
="/
Serial
Ġstarting
[index
ae
Ġcontrib
session
_new
utable
ober
Ġ"./
Ġlogger
Ġrecently
Ġreturned
ččĊ
itions
Ġseek
Ġcommunic
Ġ".
Ġusername
ECT
DS
Ġotherwise
ĠGerman
.aw
Adapter
ixel
Ġsystems
Ġdrop
Ġstructure
Ġ$("#
encies
anning
ĠLink
ĠResponse
Ġstri
Å¼
ĠDB
android
submit
otion
(@
.test
ĊĊĊĊĊĊĊĊ
Ġdirectly
Ġ"%
ris
elta
AIL
mine
ĠĠĠĠĠĠĠĠĠĠĠĠĠĠĠĠĠĠĠĠĠĠĠĠĠĠ
(k
bon
asic
pite
___
Max
Ġerrors
ĠWhile
Ġarguments
Ġensure
Right
-based
Web
Ġ-=
Ġintrodu
ĠInst
ĠWash
ordin
join
Database
Ġgrad
Ġusually
ITE
Props
ĠGo
@Override
REF
Ġip
ĠAustral
Ġist
ViewById
Ġserious
Ġcustomer
.prototype
odo
cor
Ġdoor
ĠWITHOUT
Ġplant
Ġbegan
Ġdistance
()).
Ġchance
Ġord
came
pragma
Ġprotect
ragment
ĠNode
ening
Ñĩ
Ġroute
ĠSchool
hi
Ġneighb
After
licit
Ġcontr
Ġprimary
AA
.WriteLine
utils
Ġbi
Red
.Linq
.object
Ġleaders
unities
Ġgun
onth
ĠDev
FILE
Ġcomments
_len
arrow
amount
Range
sert
GridView
Ġupdated
ĠMo
Ġinform
ociety
ala
Access
Ġhab
Ġcreat
_arg
ĠJanuary
ĠDay
uple
document
gorith
menu
ĠOver
bb
.title
_out
Ġled
uri
Ġ?></
gl
Ġbank
ayment
ĉprintf
MD
Ġsample
Ġhands
ĠVersion
uario
Ġoffers
ityEngine
Ġshape
Ġsleep
_point
Settings
Ġachie
Ġsold
ota
.bind
Am
Ġsafe
Store
Ġshared
Ġpriv
_VAL
Ġsens
){
Ġremember
shared
element
Ġshoot
Vert
cout
Ġenv
_label
run
Ġscene
(array
device
_title
agon
aby
Ġbecame
boolean
Ġpark
ĠCode
upload
riday
ĠSeptember
Fe
Ġsen
cing
FL
Col
uts
_page
inn
Ġimplied
aling
Ġyourself
.Count
conf
Ġaud
_init
.)
Ġwrote
NG
.Error
.for
Ġequal
ĠRequest
Ġserial
Ġallows
XX
Ġmiddle
chor
Ã¸
erval
.Column
reading
Ġescort
ĠAugust
Ġquickly
Ġweap
ĠCG
ropri
ho
Ġcop
(struct
ĠBig
Ġvs
Ġfrequ
.Value
Ġactions
Ġproper
Ġinn
Ġobjects
Ġmatrix
avascript
Ġones
.group
Ġgreen
Ġpaint
ools
ycl
encode
olt
comment
.api
Dir
Ġune
izont
.position
Ġdesigned
_val
avi
iring
tab
Ġlayer
Ġviews
Ġreve
rael
ĠON
rics
np
Ġcore
Main
Ġexpert
ĉĉčĊ
_en
Ġ/>
utter
IAL
ails
ĠKing
ĠMet
_end
addr
ora
Ġir
Min
Ġsurpr
Ġrepe
Ġdirectory
PUT
-S
Ġelection
haps
.pre
cm
Values
column
ivil
Login
inue
Ġbeautiful
Ġsecret
(event
Ġchat
ums
Ġorigin
Ġeffects
Ġmanagement
illa
tk
Ġsetting
ĠCour
Ġmassage
ĉend
Ġhappy
Ġfinish
Ġcamera
ĠVer
ĠDemocr
ĠHer
(Q
cons
ita
Ġ'.
{}
ĉC
Ġstuff
ĠAR
Task
hidden
eros
IGN
atio
ĠHealth
olute
Enter
'>
ĠTwitter
ĠCounty
scribe
Ġhy
fit
Ġmilitary
Ġsale
required
non
bootstrap
hold
rim
-old
ĠDown
Ġmention
contact
_group
oday
Ġtown
Ġsolution
uate
elling
]->
otes
ental
omen
ospital
ĠSup
_EN
Ġslow
SESSION
Ġblue
ago
Ġlives
Ġ^
.un
inst
enge
Ġcustomers
Ġcast
udget
ï¼ģ
icens
Ġdetermin
Selected
_pl
ueue
Ġdark
si
thern
ĠJapan
/w
PU
ĠEast
ovie
Ġpackage
Ġnor
Ġapi
bot
_post
ulate
Ġclub
Ġloop
PIO
ione
shot
Initial
Ġplayed
register
rought
_max
acement
match
raphics
AST
Ġexisting
Ġcomplex
DA
.Ch
.common
mo
Ġ'../../
ito
Ġanalysis
Ġdeliver
ĠĠĠĠĠĠĠĠĠĠĠĠĠĠĠĠĊ
idx
Ãł
ongo
ĠEnglish
<!--
Ġcomputer
ENSE
Ġpas
Ġrais
Hash
Ġmobile
Ġowner
FIG
ĠĠĠĠĠĠĠĠĠĠĠĠĠĠĠĠĠĠĠĠĠĠĠĠĠĠĠĠĠĠĠĠĠĠĠĠĠĠĠĠĠĠĠĠĠĠĠĠĠĠĠ
thes
Ġattr
wd
.time
awn
Ġtreatment
ĠAc
.View
impl
more
pass
Ġha
.from
Ġleading
FFFF
(error
.ui
atar
aders
dates
Ġzu
Ġflow
Target
Ġinvolved
Ġio
parse
$_
hest
.int
-item
asy
Sp
Ġshift
NT
Ġtf
_TR
.web
CS
Ġ})
Ġeyes
_z
iforn
Ġ{@
Ġnice
.list
ĠĠĠĠčĊ
Ġfloor
Ġredirect
ĠUK
(['
Ġwish
Ġcapt
legal
ĠIO
Ġstage
.String
ĠAfr
igen
ĠSH
Delete
ells
Ġsolid
Ġmeeting
Ġworked
Ġeditor
iny
Ð¼
_read
.Id
eff
Offset
cha
USER
ĉĉĠĠĠ
ipped
Ġdict
ĠRun
.hpp
Ġang
xml
imple
Ġmedical
_token
connect
Ġhour
Ġcontroller
_message
UID
Gr
anded
_CH
Ġbooks
Ġspeak
aming
Ġmount
Record
ĉstruct
.Web
ondon
Ġfelt
.Auto
idge
_pos
PR
Ġmodern
Collection
_msg
CD
ĠLo
Ġseconds
ibly
.equals
Ġinternational
#pragma
ooth
Writer
iate
Ġcele
ĠBit
ivo
ivery
rd
HECK
Ġcache
.count
Ġroll
.Read
RED
Ġsetup
izontal
models
argv
Ġconsidered
="../
settings
ĠRel
Ġgrowth
Ġmix
ĠWashington
Ġplt
ĠIM
áº
Ġturned
ĠDateTime
ĠWed
(url
Ġ"-
Ġletter
Async
ĠĠĠĠĠĠĠĠĠĠĠĠĠĠĠĠĠĠĠĠĠĠĠĠĠĠĠĠ
ĠOctober
_line
Ġattention
Ġcollect
ĠHash
Ġimag
Tree
Ġsituation
ette
_no
IVE
Ġvon
.target
Ġknowledge
Ġdrive
.post
Ġblood
Ġcit
primary
Ġconfiguration
tee
Ġphoto
isode
Trace
Ġgave
Ġshot
ĠAir
Ġmother
price
Ġmorning
-x
Ġtrade
Ġdesc
Ġparents
Api
ted
wer
Ġsy
ĠKe
Parser
ancy
Ġpiece
ifornia
toString
ran
iding
PTION
comes
/lic
.client
El
Long
Ġprofessional
rupt
va
Ġcompletely
Ġpractice
Ġselection
Rem
ini
Ġcam
REE
Ġsites
pa
ATUS
ÑģÑĤ
arrant
*(
_KEY
ĠButton
ĠFriday
sequ
Ġreader
Ġmessages
Ġbuf
Ke
Ġnov
HP
Msg
align
arily
Ġ',
_with
Ġdas
Ġheard
atomic
rial
)[
Ġdise
@end
Ġgold
Ġfair
Ġsales
.Button
strict
save
Ġmeasure
Ġ"+
ecause
ViewController
ĠTable
.param
Ġdecided
(((
INFO
Ġopportunity
Te
ICENSE
ccording
ki
ĠUN
Ġcontain
Ġmanager
Ġpain
ĠFire
rome
Ġplans
Found
lay
ĠDecember
Ġinflu
Ãº
rench
ĠĠĠĠĠĠĠĠĠĠĠĠĠĠĠĠĠĠĠĠĠĠĠĠĠĠĠĠĠĠĠĠĠ
azing
brief
call
wood
Ġloaded
Ġgrand
/f
imp
_U
STR
âĢ¢
Ġcredit
.Color
orge
QUEST
Ġdifference
ĠPC
wargs
Ġpub
unday
Ġfra
.max
Ġtried
annels
send
Ġreports
Ġadult
Ġconsist
ĠStreet
ĠProgram
SQL
Matrix
ouncil
-A
ĉw
Ġwhose
Ġrelig
ĠSex
Ġgives
none
.message
(G
.awt
-right
ĠNovember
ellig
utive
Äĥ
overn
Ġeasily
Ġideas
ĠÐ½
/css
lying
elle
Can
_color
Ġpair
ngth
Ġsplit
drop
arty
ona
Ġcapital
Ġhear
Ġexists
ĉlog
emo
Run
oi
Ġparser
ĠMethod
Ġeducation
[k
Ġlibrary
_UN
ĉstd
oded
Ġcalls
here
Rel
Ġbrand
background
ga
_address
_params
Category
ĠIndia
_event
Ġing
Render
.cl
umpy
Ġpet
FC
ĠAnt
Ext
Ġcharge
ened
grad
EO
Ġdepend
frame
Ġdf
Ġhuge
ĠPART
eds
;;
ĠAM
Ġbasic
ĠLet
lich
Ġarm
Ġstar
Ġfederal
Work
Ġcarry
ĠIsrael
(obj
={{
Ġsaved
Ġsyn
Ġconstant
VENT
Ġpositive
Ġconduct
Ġskin
Ġearlier
Ġlayout
ĠIP
OUR
Ġtim
stylesheet
_cl
ĠCard
Ġtemper
ĠDavid
ĉtry
.dart
Ġwants
Ġpicture
Ġvideos
ĠComm
isions
_MAX
Mapping
-content
ĠEar
-de
Ġprem
bruary
Ġcomponents
Ġthroughout
Ġpull
Ġpages
ente
respond
Ġgas
criptor
Ġedge
Ġbound
ACT
******
Ġcreating
ĠCH
Ġnullptr
Br
+'
.co
>::
Ġlearning
.Length
_SH
Ġpatients
AIN
Ġkids
Ġcomfort
Ġshown
ugins
ĠBack
ella
_CL
Ġlat
Ġdispatch
Ġclasses
.at
.begin
Ġsuccessful
ban
Ġobtain
ĠSl
Ġlack
iterator
Thread
(size
Ġnone
.has
_X
sort
nap
pet
bin
ĠCanada
They
Ġdans
ĠMat
<td
Ġhair
Ġcu
Ġlaws
leted
ped
Ġpow
Ġknew
_COM
_,
ĠMag
idents
(req
Ġ),
-center
Ġwide
ĠAuthor
stants
Ġjobs
Ġmath
etimes
Boolean
Ġscope
_is
Ġmeas
Ġkeys
elay
Ġexactly
'=>'
ĠPaul
mas
ĉprint
(len
fd
Ġ);
.Event
qli
irit
ields
oman
ĠTop
Ġvote
Ġmask
Ġtheme
Ġprops
Ġfine
Ġwriter
_offset
car
Ġaltern
Ġcopyright
Ġdestroy
pper
Ġgenerate
pped
âĢĻd
ĠĠĠĠĠĠĊ
make
ĠShow
Ġbrowser
Ġfavorite
Ġcareer
Ġhappened
(char
Ġrecommend
Ġliter
.filter
grade
ĠÂ£
Phone
oms
Ġnamed
-label
ipo
ĠOther
Ġpanel
Ġrock
Scale
ĉassert
Ð´
Ġtrust
front
Ġdemon
Ar
Net
Ġeconomic
footer
Ġrace
(node
ĠOption
split
Ġphysical
ifest
Ġremoved
.http
Ġlooked
';
ding
gest
aturday
/licenses
Price
Ġdro
Ġtowards
Ġuns
ĠCL
ĉstatic
Ġrows
Ġdefine
.replace
Ġfather
ĠDesign
assign
mut
Device
Did
ometry
ayload
Ġhistor
ĠParam
ĠBoolean
Ġnature
Ġjs
Ġnation
ih
Ġdiscover
sem
Handle
ĉr
ĠTechn
Ġwall
{$
@property
Ġ"../
Ġexam
.draw
opping
Ġnearly
Ġcool
Ġindepend
RES
Ġhandler
ĠMonday
Ġsun
Styles
ously
Ġĉ
vest
Display
(y
atically
Ġpredict
ying
Ġsometimes
Ġdrink
Ġbul
ifications
.insert
.reg
Ġtests
Alignment
Ġalleg
Ġattribute
ĠNote
Ġmyself
arts
Now
Ġinteresting
lients
Ġpopulation
ĠCalifornia
"I
Ġgreater
uesday
Ġthous
Ġcosts
Ġlaunch
\Http
ker
band
ĠPlay
Ġband
.shape
esome
article
.rf
Ġwer
Ã¡s
embers
usr
BA
ican
ett
validate
ulti
Ġimmediately
zer
Ġfigure
oes
eller
ircle
ĠSign
.db
Ġrank
Bytes
Ġprojects
_rec
ULAR
API
ĠLine
Port
Ġpoll
Ġgiving
idence
Ġplot
icial
Ġwarrant
ITION
ĠDouble
Ġbillion
gorithm
Ġequipment
DATE
Ġ@"
EE
Ġple
iation
Ġheaders
Ġproced
.ComponentModel
ĠObama
Ġpa
ĠBest
imately
.getString
.\
mploy
Ġraw
_block
undred
.GroupLayout
Ġbrought
NSString
throw
created
.New
_view
CP
eps
Op
Ġgratis
Ġ'"
Ġinterview
Ġpartial
Ġaria
bing
Author
Book
ĠPat
uman
Users
plus
ĠDirect
venue
alpha
UCCESS
ĠCall
imated
Ġremain
Ġanti
ĠLondon
Ġsafety
POSE
oles
controller
Byte
ĠCourt
ĠPhil
ĠAssoci
ena
_STR
coin
reshold
Ġbatch
_Click
entication
enty
Ġbeginning
Ġzero
ĠConvert
Ġterr
Ġpaid
Ġincreased
catch
-size
activity
equals
Ġqueue
Ġ"'
ĠInternational
ĠfÃ¼r
ursday
Ġscient
allow
axis
Ġappropri
edge
Ġidx
Success
entifier
:\
xis
Ġmaximum
arks
Ġbirth
(index
Ġmaybe
.py
files
Ġlimited
_check
look
plies
Ġmovement
'].
Ġbroad
ĠBE
ĠUnityEngine
.cpp
ĠEvery
Admin
Ġfans
pared
ĊĠĠĠĠĊ
Ġforeign
Ġpan
Ġtour
ĠOrder
Ġmoving
Ġauf
Call
cb
ÅŁ
ventory
ĠSql
Ġfully
ClickListener
WORD
Ġannounced
Ġagreed
rie
Ġearn
_link
.array
(text
Ġmaterials
,p
ffff
vg
ĠÂ©
Ġunless
ajax
LOG
Ġsexual
Ġ\"
-time
Ġcoach
Ġsupported
Ġphotos
iform
.Create
)]
rier
Ġdialog
aver
ige
)+
_idx
:[
_min
ĠCong
Ġpressure
Ġteams
Sign
begin
rian
NESS
LS
Ġimprove
ĠSunday
Ġdefinition
iger
rollers
Ġthinking
Template
-F
Ġemerg
plates
ĠUSA
.setState
ĠAlso
rev
Ġenable
ĠCO
PECT
Ġconcept
)-
ĠâĢ¢
Ġsets
Ġmeaning
emon
ĠCons
cmp
eder
anned
icensed
ĠSuper
Ġdaily
Ġmulti
_u
Ġchalleng
_mode
ĠPromise
Ġstrict
jo
inton
(list
Only
>{
Ġvehicle
íķ
ĠPlayer
ĠDel
Ġpool
.url
nesday
Local
Ġorganization
render
ĠApplication
Ġsummer
expected
NA
Ġrap
_obj
Ġsurface
ĠPUR
Ġvariables
(message
Ġopin
.back
Ð°Ð½
Ġworkers
vm
Co
ughter
Ġmaster
Ġ"",
Ġstories
.User
Ġcelebr
inese
BS
ĠCommand
ashboard
Ġog
kg
.image
.style
Ġsteps
ĠBen
(args
ĠPerson
,y
Ġofficials
Ġskills
vc
Ġbuilder
Ġgar
Account
ĠAuth
ĠAT
nn
.Int
SSERT
Ġeffective
LETE
Ġtools
ARD
Ġdigital
Double
ĠFind
RC
Ġinline
/r
ARAM
ASK
Ġintent
aight
_addr
Ġrequests
.first
Ġdebug
Ġspent
ÅĽ
Ġprincip
Logger
cludes
.use
Ġsurv
media
ĠFebruary
ĠMac
Ġmissing
Ġwife
Ġtalking
ĠMake
Ġcart
Ġlocated
Enc
-a
chron
Ġcards
Ġguy
Ġpers
ĠYes
atever
ĠAng
olar
ĠEven
Ġaccur
ĠPower
ĠGold
clear
Process
Ġrecords
Ġkilled
.clear
ĠWARRANTIES
Ġpurpose
panel
JECT
ÃŃa
Ġexerc
WS
/L
.exports
Ġ___
Ġsin
Servlet
ĠdÃ©
.delete
roke
Sl
ugh
ears
Ġpointer
Ġhop
allery
Ġobs
covery
ĉchar
ĉĉĉĉĉĉĉĉĉĉ
ĉdef
ocity
itchen
ulations
ĠFIT
Ġ).
straints
vention
Ġrequires
ĠOper
ME
OUNT
allet
Ġnorm
IRE
exas
Ġprograms
Ġweak
'.$
uing
ĉĠĠĠĠĠĠĠ
Ġmil
Ġfirm
initely
_VALUE
apse
atisf
Ġdemand
_mod
Ġdescribed
Ġplaces
VID
Ġalone
Ġexport
Ġvec
ĠMax
Ġactivities
ictures
gener
Ġma
Ĥ¬
Ġexpression
Callback
_content
ĠMost
Ġtesting
EC
CHANT
Ġadjust
.Threading
(ctx
Ġagree
ighest
Ġui
ĠLaw
.Y
><?
Ġpod
-lg
Ġdescribe
ĠEuropean
-sh
ĠPURPOSE
ORY
Ġconvers
ĠIlluminate
ĠAv
(ch
?"
chen
ima
Document
Ġoperations
win
ĉfunction
.Image
Ġscen
/h
ĠSC
Ġexplo
:%
NAME
(var
Ġdirector
ONG
Ġyield
Ġfeet
ĠSearch
ĠIl
Ġrestaur
duc
Ġinteger
Ġhighly
checked
ĠPARTIC
ERCHANT
ï¼ī
Ġoptim
Queue
ĠLI
itation
Ġtransport
ission
fill
usion
ĠĠĠĠĠĠĠĠĠĠĠĠĠĠĠĠĠĠĠĠĠĠĠĠĠĠĠĠĠĠ
ĉbool
-th
upt
Ġessential
anted
Ġbenefits
ĉS
iki
Ġgirls
iced
buffer
]+
Ġsocket
Ġprices
ĠFre
Ġsat
Ġwood
MenuItem
ARG
ĠAdmin
OWN
dk
Ġreset
Ġforms
ĠÐ¸
ĠTuesday
ĠInitialized
_train
orary
ategor
Ġdt
Total
construct
ilies
Ġguys
ÐµÑĢ
Ġinstruction
yled
Ġinternet
etadata
ady
faces
jection
ĠJack
Ġrect
[-
ĠLeg
Ġdevices
OC
oration
ertain
Ġguard
ostream
Ġenum
.layout
voke
ĠOk
Home
(tr
ETH
Ġdelay
Ġpurchase
dc
Ġaren
_once
ĉĉĉĉĊ
ror
draw
.run
(model
Timeout
lik
ĠArg
.en
Ġfish
cpy
_fe
ERCHANTABILITY
(X
_output
??
Ġjo
andard
Ġdoll
errors
_base
ĠPARTICULAR
Ġleader
Ġcompar
Ġdoub
ĠVis
StackTrace
-C
ĠStud
stitute
More
ĠDescription
WARE
ads
ĠÐº
bind
=self
employ
[n
.all
-B
&&
alm
Ġculture
house
Ġsuffer
Ġ'%
Ġstraight
ĠStar
udo
Ġded
ĠCOM
Ġconfirm
ĠGood
.sc
________________
DR
Configuration
DateTime
Ġadvert
Ġcouldn
async
stack
Kit
Ġhous
Ġmechan
rate
Ġaudio
ĉcout
cores
Ġspot
Ġincreasing
Ġ##
)))
points
Ġcompared
lig
Ġbehavior
ĠBY
ĠAtt
craft
headers
ete
endregion
Ġdetail
ULE
ĠCommon
ĉprotected
ston
ĠFITNESS
Ġfresh
.example
berg
Ġmoved
ĉe
ĠSaturday
Ġpayload
Äĩ
Ġbey
urer
<script
Ġsymbol
Ġassum
Ġpul
Effect
Ġhundred
Tool
aked
connection
Ġvoice
Ġpd
Ġtransaction
Ġlinks
Err
ĠIndian
TC
atalog
ni
sign
<<"
ji
ya
Ġdemonstr
ulated
.St
Ġinstit
Ġboost
Ġcells
olic
.Pro
:</
EventListener
ifying
ĠDi
orrow
.execute
Ġcollege
Your
Ġlargest
.dis
Ġqui
Ġindividuals
_buffer
Ġng
SA
ĠControl
Ġsing
Ġsuit
ĠĠĠĠĉ
SG
Ġjump
Ġsmart
oma
ĠExp
Ġ'-
Ġassist
Ġsuccessfully
sys
ĠCre
_ref
ĠThursday
Ġbur
ĠÐ´
Ġbeyond
Ġnodes
Details
inct
ĠJames
Ġaffect
exception
Ġtypeof
-se
Ġfetch
`,
Ġcrusher
}.
ĠBO
Show
Ġrates
Ġbon
-icon
ĠMedia
RESS
ĠValid
Ġfuck
acks
Ġstudies
Me
Ġowners
}else
Ġgrowing
Variable
ĠBel
.random
vement
onym
(F
ĠFALSE
Ġtorch
(row
igo
structure
Ġcertainly
Dep
ĠGreen
question
Ġadding
ĠDevelop
_def
Ġmach
=%
ĉĉĠ
conds
Project
Ġreject
ĠÎ
Ġpoor
Ġaware
ĠBuild
ĠBritish
ĠNE
Ġnumer
rees
claim
Ġmock
Ġom
Ġscre
OLD
.pl
eler
Ġcorrespond
_HE
Ġbinary
_order
ĠSQL
Ġadvant
Ġprev
.[
.assertEqual
plier
arp
Ġclosed
Ġencour
ĠQString
aud
Ġdeveloped
Ġpermission
.debug
operator
Ġsym
atively
Ã©e
-color
ĠGET
ky
Ġalthough
_request
_element
................
_DATA
Ġamazing
Ġsb
ĠDefault
Events
Ġfailure
acle
Properties
Ġdream
Ġdistr
Ġau
Ġgenerated
ĠTeam
USE
Ġincome
Ġeye
_not
"],
_form
Support
orders
.Print
ville
ĠWednesday
olver
Ġoppos
isation
ola
Close
<p
_width
Invalid
xb
Ġstrugg
_action
Ġtxt
ĠPath
alar
ĠMERCHANTABILITY
service
ĠMichael
ableView
Debug
okes
She
Ġguess
ĠJava
_PATH
Ġparticularly
ĠII
Ġdomain
Ġreduce
-left
real
Ġappears
Ġcomo
ĠUnit
ĠGovern
ali
allel
ĠJew
_I
Ġcos
.color
ĠGlobal
Ġtele
ben
_trans
Ġreasons
Ġemb
ensity
lines
omin
Screen
Ð°ÑĤ
pects
clip
foo
rent
Ġaf
Ġdanger
iling
Names
Our
Ġdistribution
While
SL
Write
Ġgoto
Ġcolors
Ġpowerful
kin
Ġdepth
ercial
ĠCongress
ĠMarket
Db
under
ĠLast
ÃŁ
greg
Ġposts
_URL
otos
Don
Ġmicro
Ġarrest
Ð¿
Ġ(@
ĠHot
ĠIndex
;&
#!
ĠNor
ĠCap
-(
Ġinterested
pear
Ġrent
Ġalbum
olicy
.lang
.trans
.format
phere
Ġaxis
ĠBusiness
ersistence
urr
Ġminimum
endor
ĠSD
ĠInternet
Exp
iverse
MM
Ġobvious
Ġbasis
Ġscience
Ġbudget
izations
PA
Ġflags
pret
LOCK
Ġvariety
Ġtruth
dt
Ġgone
Ġbattle
<std
ĠSil
rf
uda
Ġerot
ĠCam
Ġstation
Ġ'</
cheme
ĠSun
Ġfinished
Ġshop
ĠKore
Ġeight
_REG
ND
>,
"><?
(num
ĉinline
Transaction
.On
Ġmail
rey
results
Ġnav
IMIT
_ids
Make
Modal
ĠLOG
ĠSur
Ġinstanceof
Ġoverall
ĠInformation
Ġconstruction
_FILE
but
Ġmedic
Ġduration
itness
agent
AV
Ġseven
olf
Ġcalling
Ġans
throws
orizontal
ĠuseState
.fl
ĠStatus
ĠOnline
RR
ĠRich
ĠHill
Ġbrain
Ġfollowed
emic
Ġslight
Ġinsurance
.Array
Ġabstract
ĠSum
redirect
owner
(msg
ĠClinton
Non
ĉex
Ġvolume
ĠEventArgs
-L
ĠDim
ĠMart
Ġcursor
Ġimplementation
urred
Ġlarger
'+
.transform
Ġupload
ĠĠĠĠĠĠĠĠĠĠĠĠĠĠĠĠĠĠĠĠĠĠĠĠĠĠĠĠĠĠĠĠĠĠĠĠĠĠĠĠĠĠĠĠĠĠĠĠĠĠĠĠĠĠĠ
Draw
nel
ĉfloat
qrt
ĠNetwork
Ġtit
Axis
.android
Ġcompleted
Ġmur
Ġcolumns
xc
Ġsupply
iminal
Ġspr
================================================================
Ġunits
(u
mi
replace
[key
à¹
antic
Ġpayment
,B
ĠApple
gin
Required
#+
lands
Ġsqu
Ġfactor
dec
Ġstrength
Ġboy
Ġbalance
Ġsources
screen
-top
ĠAmazon
Ġhidden
ÐµÑĤ
_client
Ġeat
.display
ĠÂ»
Ġtrigger
anager
Ġtro
Ġclaims
ford
ĠCompany
Ġgift
,:
_app
handle
Ġproduce
/lib
Ġ-*
ĉset
'];
arc
ander
ĠEngine
Ġattributes
task
<=
(N
Ġwarm
which
ĠFore
agnost
mys
Ġtal
ĠSal
gi
ĠPrint
ĠTRUE
ĠÐ¾
.UI
Ġflash
roperty
.location
ĠMill
bi
contr
.request
ĠSam
Ġnegative
kit
Ġsett
.printStackTrace
abe
ĉi
Ġburn
Ġsociety
Cache
ĠSecurity
.models
ĠWARRANTY
_up
ceive
Ġclients
.Tr
Ġproviding
Ġrout
material
ĠSer
ĠOffice
FTWARE
Ġ'$
Ġfoc
Ġexcell
Ġcat
normal
Ġdetermine
ĉuint
Pane
Ġemployees
ĠTexas
Ġtraff
ĠReport
anta
ĠBox
Ġdjango
Ġpartner
EB
LINE
Ġfeeling
Ġcivil
(float
Sql
Ġwouldn
.init
.left
-v
_level
'}
AF
Ġloading
ĠOnly
Ġcookies
ĠGl
CO
Ġstrategy
('./
Ġship
poses
Ġsignal
Ġalpha
.pop
Radius
Ġreplace
_DIR
counter
bservable
ela
Weight
hash
bose
fx
ĠEmail
Ġrefer
localhost
_RO
iques
Step
Ġahead
(View
ĠServices
ĠJson
essor
Ġpun
Ġappropriate
akers
osen
posing
Ġagent
fc
Ġtransfer
Ġinvalid
ĠResearch
Vertex
Ġgay
Ġjournal
[x
ĠWell
.Tasks
Spec
Ġol
Ġspend
ĠAustralia
Match
.junit
ĠĠĠĠĠĠĠĠĠĠĠĠĠĠĠĠĠĠĠĠĠĠĠĠĠĠĠĠĠĠĠĠĠĠĠĠĠ
ĠMAX
izable
clusive
_valid
Ġquarter
yan
ĠEdit
arden
=new
Ġfrag
Bit
zi
aine
udd
.Object
debug
Ġcash
_IM
Ġeen
Ġcommercial
ĠVideo
loader
Ġfixed
Ġapplications
Ġ_,
ĠRussia
itect
_(
ĠBlock
Ġsan
ĠTom
Ġperhaps
Ġsig
levant
Ġcorpor
ataset
ronic
xe
Ġeth
Some
pop
_OK
Ġtend
.Res
_and
Ġreviews
Ġwild
Ġdegree
.O
.objects
_args
nil
Ġdisabled
Parent
Ġnotes
(state
istrict
Ġlogging
.IO
ĠMal
DM
Ġxml
ĠRobert
elen
layout
fol
']))
,b
ĠJer
filename
Ġfan
ĠCustom
=""
ĠDie
Bundle
.utils
Ġtrip
MB
Ġsoft
_MODE
Ġapplicable
Ġupper
ERVER
_al
_LOG
Here
wp
ĠServer
ĠClient
Ġchem
Scroll
Ġhighest
ĠSelect
Ġ"@
ĠWhy
Sec
heel
Operation
Ġconnected
irmed
Ġcitiz
ĠChe
Ġforces
Ġwww
Root
ANCE
Many
icip
rgan
ĠTor
ĠPress
ĠMor
-line
uled
>\
Ġthus
ĠRegister
hol
ĠChinese
Ġposted
Ġmagn
abilities
Ġdisease
Ġremains
ĠProf
-form
Ġcin
organ
icate
Ġstress
]*
Ġ----------------------------------------------------------------
_context
orry
Ġdied
mat
Ġstarts
.Message
Ġruns
Ġguide
Ġwarranty
entials
dict
ĠSize
uler
Ġresponsible
_SET
Ġcontaining
ĠPrice
||
FS
Ġemp
_button
(uint
Ġsuff
pth
Ġdefinitely
pute
Ġmarketing
ĠWH
ĠSie
+=
OLOR
Ġconsult
Ġsigned
Ġsequence
lee
Ġrequirements
hy
Express
MT
sey
Ġult
elligence
Ġanaly
Ġdress
engine
ĠGreat
ĠAndroid
ĠAlex
mode
Dictionary
.Date
VICE
Ġfamilies
ĠRussian
ĠTimes
.call
$(
Profile
Ġfolder
ches
Ġlegis
_row
unes
ÙĦ
Ġ}).
Assert
agen
ĠHand
Iter
Ġbiggest
oreach
Ġpolic
Ġpermissions
Ġshowed
ĠElement
Ġtopic
âĢĶâĢĶ
road
ĠBank
record
Ġpartners
ĠRef
essions
Ġassess
UST
ĠParty
produ
LC
Ġul
.form
hide
copy
UTF
ĠSOFTWARE
čĊčĊčĊ
ĠLin
una
ugar
Ġadministration
Ġopening
Ġscan
Ġcontinued
component
.sp
Ġhappens
ummy
ĠPR
.File
ĠDownload
Loading
di
Ġwaiting
_ADD
Tab
.querySelector
Ġeconomy
ĠFrench
txt
Ġfant
Holder
SH
Ġnumpy
Ġstreet
Ġmale
\Model
anging
ĠBill
Ġpreviously
BI
ĠSecret
Ġmist
ĠField
ups
ĠProcess
Ġkept
ĠOT
Ġtraditional
.i
amin
Ġhelps
Any
origin
ilters
ju
desc
ĠAccount
ktop
olly
Ġfs
Ġê
Ġut
Ġcentral
(test
.An
Ġsatisf
GR
ĠFull
Ġheat
iber
Ġonto
mos
Schema
Ġfactory
".$
aws
Statement
(target
ĉnew
.be
Ġguest
Ġmal
ARY
Ġreached
Ġmouse
Ġchallenge
ĉdouble
ĠTem
Ġterror
Ġextract
_TO
Ġseparate
Ġmir
help
Ġcapacity
ĠProperty
kan
_create
ĠLight
.parent
Ġunderstanding
Ġeasier
Ġ|=
Ġenh
Ġfat
Ġprotest
amm
_AT
-of
ils
ĠOh
Ġpsych
Ġ$.
inds
Ġrelative
shop
short
ĠSand
uestion
Ġfear
.context
Ġschools
Ġserve
zone
_db
Ġmajority
example
Ġlang
ĉĠĠ
Register
endo
Ġprocessing
_template
-user
Ġeg
COM
ĠBlue
iro
Ġremote
ĠIT
#!/
Ġredistrib
raz
ĠSince
ĠTur
Background
===
Ġreflect
Ġpros
cmd
Ġwhom
Compat
ĠAre
Identifier
ĠThom
_port
gu
Ġmonitor
rm
Ġpatient
verter
Ġgain
-ui
Inst
Ġdies
Area
_filter
Ġgrat
Ġreality
ordinate
olved
Contact
Ġcompliance
_or
ĠVar
dl
Ġappend
GER
(max
.render
Ġdynamic
ordinates
_options
_column
Ġbatter
space
La
ĠSource
/bin
Ġdos
ĠBoard
ĠThread
ĠAL
(config
ĠMer
Ġmiles
_header
ETHOD
izz
Ġbenefit
Ġintegr
(current
ulo
.default
ĠDiv
Ġton
oth
ervation
edom
Ġbaby
ceived
.top
riority
ĠLocal
riage
Ġattacks
Ġhospital
Ġfemale
ĠLogin
ĠFlor
Ġchain
ashion
Texture
Save
Ġfarm
.contains
.Test
Ġknows
Ġgenerally
ipeline
Ġmeant
encia
Ġnicht
Ġcontents
PM
chedule
(line
CG
job
ĠReal
uer
firm
ĠØ
etro
Ġspeech
Ġthr
foreach
Ġwarn
ĉl
Ġheavy
<li
Ne
Ġinvestigation
Math
-title
Ġchurch
Ġdespite
chain
Ġwhatever
arian
fn
Ġmeta
UFF
Ġregarding
_SUCCESS
mes
ĠIntent
Ġresolve
poss
ira
force
oice
Ã¢
Ġpm
Ġupdates
Arr
ĠÑ
testing
Ġtoward
ntax
ëĭ
Ġlisten
Ġgoals
InstanceState
Dr
Ġrare
Ġtrail
Keys
Cal
Car
ĠPeople
ĉlocal
classes
Reference
.forEach
emb
activ
Ġprim
redict
Ġrad
.Back
Ġspread
Ġclock
Ġvir
editor
Ġefforts
Ġbranch
Ġindust
Ġmotor
Ġamb
Ġdatetime
Ġrencont
ĠChristian
ĠAmericans
full
Ġfmt
.main
Ġcaused
_update
ĠContent
ATCH
Ġbath
ĠEach
Ġradio
achment
uzz
Submit
Ġrestrict
abin
ĠLoad
Ġextension
Ġessay
Ġhat
aviour
toBe
":[
Ġoffered
Ġvill
(double
bc
_free
ĠMiss
ĠBer
ĠLike
Ġhelped
.getName
_AL
Ġspirit
ĠApache
ws
Ġtherefore
(params
_img
Ġpeace
Ġincor
ĠEXPECT
Ġminor
ipes
ĉdata
selector
city
trie
.base
_frame
Ġopened
/json
LY
nu
.De
tf
margin
.Parse
Ġpi
Ġeq
bd
Fields
ĠTree
Ġban
istan
ĊĠĠĠĠĠĠĠĠĊ
ĉgl
Ġproduced
system
Mark
_hash
Ġbg
Ġconstit
ĠLeague
Ġmission
_format
clusion
!"
Ð·
break
ĉswitch
Ġther
Transform
Ġfootball
-link
route
.auth
Ġbag
overs
Ġenabled
Ġrac
(I
CR
ancing
Ġmanaged
_q
NGTH
Ġmac
ĠAuto
amente
Ġ'',
.Append
Ġpin
.item
acking
Ġoccas
person
Ġti
.Reg
Ġhaven
Ġglass
Ġ"</
ĠSimple
Print
Ġsurround
NO
ĠĠĠĠĠĠĠĠčĊ
ĠMany
Ġ"_
Ġweekend
Ġsomew
.params
small
ATED
Ġplugin
fields
ĠInitialize
oon
atile
ye
Ġvous
LAG
Ġolder
Ġgam
Ġextremely
Ġhet
enum
ĠSET
xff
Ġtimer
/index
Ġcritical
Rows
_argument
Ġexecute
Ġshowing
.xml
-list
Role
typename
_method
that
cher
ĠâĨ
XT
Ġthousands
ĉn
Ġresp
_price
olut
Ag
ĠTwo
Ġbecomes
Ġhus
.Use
theme
urb
erialize
ARN
Ġlose
Lower
Ġvel
Ġdefense
condition
Ġbes
Ġdry
Ġscroll
.Show
IEL
Ð¾ÑĢ
ĠRest
Where
oods
ĠJes
Ġwire
_INFO
Ġstrings
gment
Ġmatches
Ġelectric
Ġexcellent
ĠCouncil
idade
Ġwx
push
_entry
Ġtasks
Ġrich
sa
ĠSmith
UNCTION
Pointer
pective
Ġwidget
ista
Ġagency
Ġsich
ologies
Ġtrial
alysis
.check
ARK
ĠonChange
about
',$
(val
Ġplaced
_NO
Ġdan
.equal
ĉĠĠĠĠĠ
Ġweather
.game
Ġdestination
_USER
iece
Ġprovider
.last
plex
Note
/js
ĠpÃ¥
Ġplanning
attribute
PRO
atches
Ġ<-
Ġseeing
Ġcancel
_ind
.keys
Ġvisual
ĠCurrent
ĠCollege
ĠRock
Ġagreement
ĠStore
oving
Ġcorner
ampions
ISE
Fin
Ġprotection
Ġfi
Play
plugin
)}
.frame
-z
Ġtransition
igin
Ġcandidate
ĠUnion
_values
(map
cle
Ġtrend
wide
aren
Loc
UTH
ĠBay
Ġsmaller
ius
well
Ġcriminal
Ġconflic
bert
_INT
Ġinvestment
custom
ĠSession
_write
ania
ĠMass
_EQ
_NOT
Ġviolence
Argument
_email
Ġbelong
_function
Ġenemy
ema
ĠAddress
.empty
Ġinner
ĠContact
Loader
<input
ĠCA
lot
Ġpictures
ĠSupport
_names
Layer
ĠClick
Sum
Ã¦
ĠLook
uous
Lib
Flags
team
EP
hat
override
apsed
Ġlabels
quis
ĠStream
_device
ĠCommit
(root
"}
.isEmpty
ĉM
Ġangle
ĠBecause
%%%%%%%%
Ġaim
Ġstick
stmt
agraph
answer
Ġclin
ĠIsl
.ext
ĠINT
Ġstyles
Ġborn
Ġscr
Ġexpand
Ġraised
TextBox
ILL
------------------------------------------------
HTTP
>)
_char
resource
Ġepisode
Ġ'_
ĠEs
ĠEarth
ÂłÂł
UPDATE
ĠSou
uis
types
Ġmas
Ġfav
Ġconstruct
_rate
eras
roperties
Ġexternal
Ġapplied
Ġprefix
oted
lers
Ġcold
ĠSP
ĠChurch
ĠOutput
losed
ificate
operation
herit
xFF
.env
_err
osh
Direction
Cancel
ĠFrank
Ġfinding
Ġrouter
ãĥ»
ses
Ġcrow
=='
Ġsand
Ġrid
iture
Ġentre
Ġobserv
Ġvac
ðŁ
-T
Art
night
.search
Ġexchange
Ġdistrict
.os
Ġdepartment
Ġdocuments
Ġcentury
ĠNext
Host
ĠKIND
Ġsusp
-P
rend
.em
uite
isters
(json
ĠAnn
wt
ati
ĠHTML
when
Directory
Ġshut
<a
edy
Ġhealthy
Ġtemperature
ĠGen
Ġmetal
Ġsubmit
ĠDO
Ġattract
ĠWord
Ġll
Ġseemed
ko
IED
Ġlabor
.Context
Ġasset
you
Ġcars
ĠColumn
ĠrÃ©
Ġsquare
ĠNSString
âĢĿ,
apes
Ġthanks
(props
Ġtick
Ġexperiment
Ġprison
tree
-text
ĠIOException
-width
_STATUS
fast
-body
-header
Ġguar
crete
ĠTim
Ġclearly
ĠRepublican
Ġjustify
Ð¸ÑĤ
ĉĠĠĠĠ
cache
;//
Ġpresence
Ġfactors
Ġemployee
]))
Member
Ġselector
bor
ĠMex
utex
_tag
ailure
ĠNet
Ġreli
EG
Ġfprintf
Ġteen
loss
Ġleaving
Delegate
Ġbeat
Ġminute
subscribe
Ġredistribute
Constants
Ġcancer
/{
BL
Ġspan
ĠChild
Center
Ġearth
YS
ĠLevel
Ġsea
.support
.inner
.Item
illing
ĠĠĠĠĊĠĠĠĠĊ
ĠLabel
ĠEst
(arg
boBox
ĉforeach
cos
Failed
swers
Editor
ront
ĠMP
expr
ĠLife
Ġ??
Ã¶r
Ġattend
ĠQue
Ġspecies
-D
Ġaus
Struct
Ġadvantage
oston
-block
initial
CRE
Ġtruly
Ġcompare
orney
Ġspect
Full
bes
Ġvisible
Ġmess
stances
Ġcloud
_version
Ġfurn
icago
LOW
Ġtraffic
Ġfol
rypto
Ġdeclar
Ġslot
ĠExt
ĠEngland
ĠUnder
Ġta
letter
Ġofficer
ĠDonald
Yes
_json
ITableView
ĠUSE
mployee
Ġopinion
ĠAut
border
Ġadvice
Ġautomatically
isco
Ġmm
.vis
aml
Ġinitialize
Ġ({
Ġgeneration
Ġbits
clipse
Ġunf
utors
plt
Ġdelta
estroy
isis
<br
Ġlimitations
Ġended
ĠMad
ilm
These
ĠMinister
Ġchart
Fragment
Ġindependent
Year
Ġinstr
Ġtags
AVE
ĠArch
stop
Progress
Ġmi
Ġlearned
Ge
Ġhotel
SM
TYPE
Ġcy
ERSION
unately
limit
sel
Ġmovies
Ġsteel
oz
gb
ĠCamp
site
ĠLogger
PLE
.right
ĠCore
Ġmixed
step
Ġputs
super
Router
.Http
lyph
ĠColors
Ġandroidx
.str
Ġinnov
Ġdeck
apers
](
continue
spec
ĠRoad
ASH
iliar
Ġcontinues
Ġappoint
ĠVir
Ġ?>"
Ġbin
}",
going
each
BD
ĠAccess
Doc
ĠManagement
BER
asket
.getInstance
Ġestablished
socket
INS
ĉvirtual
ĉresult
READ
_height
ĠFont
_html
Ġneighbor
lor
Ġgather
Ġidentity
Ġfab
padding
ĠRoute
Enumerable
Ã´
Ġforced
/jquery
resents
_left
.Param
ĉthrow
ĠHam
Ġeventually
acer
pub
Ġtra
unique
del
ĠFlorida
ĠClean
xa
ĠÂ·
Ġvalidate
Visual
Expression
_func
member
ĉh
trl
ĉG
napshot
ĠPropTypes
vin
owl
ifies
Ġ$('.
ĠContext
ĠToast
.Key
Ġofficers
/n
sn
undefined
.items
utow
amage
Ġaccounts
ookie
Section
icians
Ġadvis
(is
[:,
ĠFrance
Func
icious
Ġtok
Channel
ĠAD
_NUM
Ġtimeout
lemma
reme
uj
.Al
uclear
(os
("<
fetch
Ġbal
Ġguid
-align
ĠWrite
ĠOnce
utowired
ODULE
Ġpitch
CF
bytes
ĠCommission
Ġincred
PER
_response
ĠLos
parser
Ġassume
.Request
ĠToken
_position
Ġnom
-term
Ġremaining
iostream
Ġpieces
apy
ĠLess
range
umbn
prise
_option
Impl
kwargs
Ġbusinesses
Alert
Ġparties
ĠContainer
ĠPrivate
ĠPlan
Ġregistered
Ġjour
acker
ÐµÐ½Ð¸
/>
chat
sect
Ġcreation
olutely
Ġinstant
Ġdelivery
icken
yes
ĠFranc
bling
enda
[(
_range
ĠĠĠĠĠĠĠĠĠĠĠĠĠĠĠĠĠĠĠĠĠĠĠĠĠĠĠĠĠĠĠĠĠĠ
Ġschedule
Conn
Ġthank
xd
Ġhook
Ġdocumentation
Parameters
Hello
vt
Ġarticles
Ġwest
defined
.select
okens
ĠVAL
.file
reset
Ġmys
ĠMA
]),
Ġcities
related
Ġappeared
Ġwid
.panel
ĠIns
.entity
Ġdecre
ĠLou
(time
ĠThank
.createElement
Ġmentioned
ounce
ĠTry
ĠWall
/images
ĠMenu
ĠEr
Ġcritic
ĠYear
(param
Ġflo
NN
ooter
ĠAff
"github
rooms
Ġhyp
global
Ġavec
Ġcompletion
Ġcond
onymous
(temp
Ġstars
Ġrelevant
Ġcovered
Ġelim
_types
(bool
Ġtu
_exists
Ġsecure
Ġstored
]/
xF
ĠController
Ġmigr
MI
ĠDen
Ġannual
UIL
-and
Ġcrime
bel
Ġkitchen
@g
_ph
ournament
ĠSocial
ĠSpecial
logger
Ġtail
Ġunknown
ded
Ġapprec
(db
cf
Ġassign
-out
ĠMont
dp
widget
Ġstone
-primary
.grid
Results
azz
Ġdaughter
Ġcurr
Ġlin
Ġsouth
forms
ĠOUT
lette
aks
igure
ĠEU
variable
Ġbrief
ĠScott
Ġconference
anda
_lock
oral
Ġeine
ORS
////////////////////////////////////////////////////////////////
esso
Ġris
Ġgender
estic
License
(out
Ġms
See
Ġwilling
aze
Ġsports
Ġyes
lu
Ġpurs
/javascript
-pro
navbar
_product
/bootstrap
Ġdriving
ĠÄ
Ġpropos
ultip
uplic
.email
Ġapprox
(cl
Ġwear
Ġreply
asset
Ġice
Ġtx
kr
ĠGermany
ĠGeorge
Ġcb
ĉerr
Move
Ġpoly
voice
}"
Ġanimal
Av
ĠLocation
Ġnative
]["
<double
Ġmais
,int
Ġprepar
Ġinterval
plementation
_ERR
Ġbug
>"
stat
<span
Ġfaith
Ġrom
prev
ĠElect
Find
Ġgod
otor
//----------------------------------------------------------------
original
Cpp
ĠSenate
Ġpositions
Ġweapons
Ġcoff
Ġpurposes
pol
Ġimpress
Ġanimals
.Entity
(np
Ġmurder
Ġ``
flag
Ġsolutions
ĠActive
Ġbright
.date
Ġsitu
ï¼Ī
.ID
Ġsie
akt
Space
.dat
.indexOf
han
azine
ĠZe
Ġcrash
(/
>=
Ð±
iva
.AutoSize
ĠLat
_ext
Initialize
.register
OPY
Ġreverse
_dis
'][
Ġprompt
onto
ĠJournal
router
Ġmysqli
#else
)"
-xs
lets
phan
.LE
Will
Ġafford
Ġskill
-toggle
NC
Bind
TS
Just
iteral
YP
ĉunsigned
Ġwind
Ġwarning
ĠWater
Ġdraft
Ġcm
Ġsam
Ġholding
zip
ĠScience
Ġsupposed
Gen
Ġdiet
<h
ĠPass
vi
Ġhusband
ï¿½ï¿½
note
ĠAbout
ĠInstitute
Ġclimate
.Format
Ġnut
ested
Ġapparent
Ġholds
fi
news
CM
video
':'
DITION
ping
Ġsenior
wa
_default
ĠDatabase
rep
ESS
nergy
.Find
_mask
Ġrise
Ġkernel
::$
.Q
Ġoffering
decl
ĠCS
Ġlisted
Ġmostly
enger
Ġblocks
olo
Ġgoverning
\F
Ġconcent
.getText
Ġmb
Ġoccurred
Ġchanging
Scene
_CODE
Beh
"The
Ġtile
ĠAssociation
ĉP
alty
_ad
odies
iated
Ġprepared
possible
Ġmort
TEST
Ġignore
Ġcalc
Ġrs
ĠassertEquals
Ġsz
ĠTHIS
Ġcanvas
java
Ġdut
VALID
.sql
.input
Ġaux
Sup
Ġartist
Vec
_TIME
.stringify
etween
ĠCategory
Ġ[-
ĠDevExpress
ĠJul
Ġring
.ed
YY
Let
TextField
Ġflat
_print
ĠOTHER
adian
Ġchecked
ele
Align
standing
Ġ[],
Ġlab
ucky
ĠChristmas
(image
.module
Ġlots
Ġslightly
(final
erge
ĠPolice
ĠRight
Ġaward
ĠOS
Ġptr
oves
icated
Ġmanage
oliday
Amount
oolStrip
tbody
Nav
wrap
BB
Ġwatching
arios
Ġoptional
_K
ĠLicensed
.Map
Timer
ĠAP
ĠRev
(o
,c
umin
etailed
ĠHy
Ġblank
agger
ĠSelf
()[
.make
earn
channel
<pre
blem
_password
_sp
icing
ez
Ġtheory
ĠTer
,n
logo
ĠHTTP
()))
.handle
World
Ġpython
Ġlif
Ġtrav
Ġconven
company
ĠClub
Ver
Btn
Ġzone
products
ĠEduc
Ġverify
ĠMil
ono
ENCE
Ġpacket
Ġcer
Ġenumer
Ġpars
formed
Ġoccup
tre
Ġexercise
Day
_sum
Ġasking
aption
Ġorders
Ġspending
ĠERR
.Dis
ĠUtil
âĢľI
\'
?)
Ġemot
Ġinfluence
ĠAfrica
atters
Ùħ
.session
Ġchief
ĉĉĉĉĉĉĉĉĉĉĉ
Ġtom
cluded
serial
_handler
.Type
aped
Ġpolicies
-ex
-tr
blank
merce
Ġcoverage
Ġrc
_matrix
_box
Ġcharges
ĠBoston
Pe
Ġcircum
Ġfilled
Ġnorth
ictureBox
ĉres
Ġtermin
Ġ[âĢ¦
IRECT
Ġber
Ġ"../../
retch
.code
_col
ĠGovernment
Ġargv
ĠLord
asi
Exec
ĉlet
vertis
Ġdiscussion
enance
outube
typeof
Ġserved
ĠPut
ĉx
Ġsweet
Before
ategy
.of
ĠMaterial
Sort
ONT
igital
Why
Ġsust
abet
Ġsegment
ĠMuslim
ĠfindViewById
cut
_TEXT
ĠMary
Ġloved
Ġlie
ĠJO
Ġisset
month
Ġprime
ti
ĠCarol
Use
ĠPop
ĠSave
Interval
execute
dy
ĠIran
_cont
ĉT
Ġphase
checkbox
week
Ġhide
Ġtil
Ġju
Custom
burg
/M
TON
Ġquant
Ġrub
ixels
Ġinstalled
Ġdump
Ġproperly
(List
Ġdecide
apply
Has
Ġkeeping
Ġcitizens
Ġjoint
pool
Socket
_op
Ġweapon
gnore
ĠExec
otten
ĠMS
Ġ(-
ĠReview
Ġexamples
Ġtight
!(
DP
ĠMessageBox
Ġphotograph
URI
Ã©t
low
ĠGrand
.persistence
Ġmaintain
Ġnums
Ġzip
ials
ĠGets
peg
ĠBuffer
~~~~
rastructure
ĠPL
uen
obby
sizeof
Ġpic
Ġseed
Ġexperienced
Ġodd
Ġkick
Ġprocedure
avigator
-on
,j
ĠAlthough
ĠuserId
accept
Blue
IColor
layer
available
Ġends
.table
Ġdataset
bus
Ġexplain
(pro
ĠCommittee
Ġnoted
Dim
stdio
_source
ĠWeek
ĠEdge
Ġoperating
Ġeste
ipl
agination
Ġproceed
Ġanimation
.Models
ĠWatch
iat
Ġoppon
/A
Report
Ġsounds
_buf
IELD
Ġbund
ĉget
.pr
(tmp
Ġkid
Ġyang
NotFound
ÑĨ
math
@gmail
ĠLIMIT
redients
Ġvent
avigate
Look
Ġreligious
Ġrand
rio
(GL
_ip
uan
iciency
ĠChange
ĠEntity
Ġrencontre
ĠRet
plan
Ã©n
BOOL
uries
train
Definition
============
zz
Animation
ĠOK
_menu
.bl
_score
Ġacad
(System
Ġrefresh
'=>$
.Graphics
amento
pid
tc
Ġtips
Ġhomes
Ġfuel
âĸ
_helper
ĠĠčĊ
ĠRoom
.Close
_attr
ĠMount
ĠEv
arser
_top
eah
ĠDelete
ãĢį
uke
Ġusage
aria
_dev
Ġtexture
Ġconversation
eper
Bean
done
nonatomic
ĠSecond
Ġshooting
_pre
Components
__,
stitution
.Char
Ġpresented
Ġwa
oker
iner
Ġbecoming
Ġincident
Att
Ġrevealed
forc
Ġboot
.page
Enumerator
_->
Photo
Ġspring
.",
ĠDictionary
BJECT
Ġlocations
Ġsamples
InputStream
ĠBrown
Ġstats
quality
Ñħ
-dis
Ġhelping
Ġped
(se
ĠWho
alian
internal
Ġft
>().
->{
Ġmine
Ġsector
Ġgro
Ġopportunities
ĠÃ¼
Ġmp
Ġalleged
Ġdoubt
Mouse
About
_part
Ġchair
Ġstopped
loop
entities
Ġapps
ansion
Ġmental
ĠĠĠĠĠĠĠĠĠĠĠĠĠĠĠĠĠĠĠĠĠĠĠĠĠĠĠĠĠĠĠĠĠĠĠĠĠĠĠĠĠ
FR
Ġdefend
care
Ġideal
/api
urface
Ġele
ulator
ĠRights
anguages
Ġfunds
Ġadapt
Attributes
Ġdeploy
opts
Ġvalidation
Ġconcerns
uce
.num
ulture
ila
Ġcup
Ġpure
.Fore
ĠHashMap
.valueOf
asm
MO
Ġcs
Ġstores
Ġ************************************************************************
Ġcommunication
mem
.EventHandler
.Status
_right
.setOn
Sheet
Ġidentify
enerated
ordered
Ġ"[
Ġswe
Condition
ĠAccording
Ġprepare
Ġrob
Pool
Ġsport
rv
ĠRouter
Ġalternative
([]
ĠChicago
ipher
ische
ĠDirector
kl
ĠWil
keys
Ġmysql
Ġwelcome
king
ĠManager
Ġcaught
Score
_PR
Ġsurvey
hab
Headers
ADER
Ġdecor
Ġturns
Ġradius
errupt
Cor
Ġmel
Ġintr
(q
ĠAC
amos
MAX
ĠGrid
ĠJesus
ĠĠĠĠĠĠĠĠĠĠĠĠĠĠĠĠĠĠĠĠĠĠĠĠĠĠĠĠĠĠĠĠĠĠĠĠ
.DE
Ġts
Ġlinked
free
ĠQt
Ġfaster
ctr
_J
DT
.Check
Ġcombination
Ġintended
-the
-type
ectors
ami
uting
Ġuma
XML
UCT
Ap
ĠRandom
Ġran
.sort
Ġsorted
.Un
_PER
itory
Ġpriority
ĠGal
ĠOld
hot
ĠDisplay
(sub
_TH
_Y
ĠCare
loading
Kind
_handle
,,
rase
_replace
.addEventListener
ĠRT
Ġentered
gers
Ġich
(start
/app
Ġbrother
Memory
Outlet
Ġutf
prec
Ġnavigation
ORK
Ġdst
Detail
Ġaudience
Ġdur
Ġcluster
unched
Ġ],
Ġcomfortable
.values
ĠTotal
Ġsnap
Ġstandards
Ġperformed
hand
("@
Ġphil
ibr
trim
Ġforget
Ġdoctor
.TextBox
icons
,s
ĠOp
Sm
Stop
ĉList
ĉu
Comment
_VERSION
.Xtra
Person
rb
LOB
ĠĠĠĠĠĠĠĠĠĠĠĠĠĠĠĠĠĠĠĠĊ
ĠCentral
ICK
raq
Ġputting
Ġmd
ĠLove
Program
Border
oor
Ġallowing
after
Ġentries
ĠMaybe
]).
ĠShort
)\
.now
friend
Ġprefer
ĠGPIO
osis
ĠGameObject
Ġskip
Ġcompetition
_match
lications
_CONT
.groupBox
Ġals
"We
_eq
lan
_search
ĠMusic
asis
Ġbind
ĠIsland
rum
(E
Ġseat
Video
Ġack
reek
={()
Ġrating
Ġrestaurant
DEX
(buf
pping
uality
Ġleague
Ġfocused
apon
$data
CLUD
CLUDING
Ġabsolute
(query
Ġtells
Ang
Ġcommunities
Ġhonest
oking
Ġapart
arity
/$
_module
ĠEnc
.an
.Config
Cre
Ġshock
ĠArab
IENT
/re
Ġretrie
ycler
isa
ĠOrgan
.graph
Ġí
ĠBAS
Enum
Ġpossibly
ĠJapanese
Ġcraft
ĠPlace
Ġtalent
Ġfunding
Ġconfirmed
Ġcycle
/x
GE
Ġhearing
Ġplants
Ġmouth
pages
oria
ĠRemove
_total
Ġod
ollapse
door
Ġbought
Ġaddr
ARCH
_dim
dden
Ġdecades
REQUEST
Ġversions
fire
Ġmoves
fb
Ġcoffee
.connect
ĠRow
Ġschema
Scope
-Type
Ġfighting
Ġretail
Ġmodified
TF
Files
nie
_command
stone
ĠÑĤ
_thread
Ġbond
ĠDevelopment
Ġpt
FORM
plet
Ġidentified
cpp
Ġcoding
oked
ĠMaster
IDTH
Ġresidents
redit
ĠPhoto
=-
unte
ateur
_STATE
ĠSing
Ġsheet
.val
orse
Ġhers
Ġdetermined
Common
Ġwed
_queue
PH
ĠAtl
cred
/LICENSE
Ġmes
Ġadvanced
.java
.Sh
Go
kill
fp
_settings
Ġpal
Ġtruck
Ġcombined
Ġ"${
ĠCorpor
Ġjoined
ĠJose
ĠCup
uns
estival
levision
Ġbroken
Ġmarriage
ĠWestern
Ġrepresents
ĠTitle
Ġss
.Ass
ongoose
iento
Ġabsolutely
Ġsmooth
TERN
ĠUnless
Word
Ġmerge
igan
ĠVol
Ġnn
.getId
ĠÐ·
Ġsexy
Ġseeking
Single
.this
Ġkom
bound
;"
ĠfontSize
_df
Ġinjury
(H
Ġissued
_END
:self
Ġpatch
Ġleaves
Ġadopt
FileName
ãĢĲ
Ġexecutive
ĠByte
Ġnu
outing
cluding
-R
.options
Ġsubstant
avax
ĠBUT
Ġtechnical
Ġtwice
ĠmÃ¡s
Ġunivers
yr
Ġdrag
ĠDC
Ġsed
Ġbot
ĠPal
ĠHall
forcement
Ġauch
.mod
notation
_files
.line
_flag
[name
Ġresolution
Ġbott
("[
ende
(arr
Free
(@"
ĠDistrict
PEC
:-
Picker
ĠJo
ĠĠĠĠĠĊ
ĠRiver
_rows
Ġhelpful
Ġmassive
Ġmeasures
ĠRuntime
Ġworry
ĠSpec
ĉD
ãĢĳ
Ġworse
(filename
Ġlay
Ġmagic
ĠTheir
oul
stroy
ĠWhere
Ġsudden
Ġdefe
Ġbinding
Ġflight
ĠOnInit
ĠWomen
ĠPolicy
Ġdrugs
ishing
('../
ĠMel
peat
tor
Ġproposed
Ġstated
_RES
Ġeast
ĠCONDITION
_desc
Ġwinning
folio
Mapper
ĠPan
ĠAnge
.servlet
Ġcopies
LM
Ġvm
Ġdictionary
Seg
elines
ĠSend
Ġiron
ĠFort
.domain
Ġdebate
NotNull
eq
acher
lf
ĉfmt
Ġlawy
ÄŁ
ĠMen
Ġtrim
(NULL
Ġ!!
Ġpad
Ġfollows
"]["
requ
ĠEp
.github
(img
eto
('\
Services
umbnail
_main
pleted
fortunately
Ġwindows
Ġplane
ĠConnection
.local
uard
}\
=="
andon
ĠRoy
west
iginal
emies
itz
ĠPeter
Ġtough
Ġreduced
Ġcalculate
Ġrapid
customer
Ġefficient
Ġmedium
Ġfell
.ref
ĠCas
Ġfeedback
Speed
(output
aje
Ġcategories
Ġfee
};
Ġdeleted
reh
Ġproof
Desc
Build
Ġsides
.ArrayList
-%
ĠĠĠĠĠĠĠĠĠĠĠĠĠĠĠĠĠĠĠĠĠĠĠĠĠĠĠĠĠĠĠĠĠĠĠĠĠĠ
Ø±
.match
Ð»Ð¸
Ġfeels
Ġachieve
Ġclim
_ON
ĠCD
Ġteacher
_current
bn
_PL
isting
Enable
GEN
Ġtv
Ġsock
Ġplays
Ġdiscount
ĠKE
ĠDebug
Fore
ĠIraq
Ġappearance
Mon
Ġstyled
ĠHuman
iot
ĠHistory
Ġsac
ĠCollection
Ġrecommended
.Selected
Ġorganizations
Ġdiscovered
cohol
adas
ĠThomas
May
Ġconserv
Ġdomin
ĠFollow
ĠSection
ĠThanks
Username
Ġrecipe
Ġwonderful
.sleep
_if
ĉĊĉĊ
orno
Ġru
_target
.""
à¦
EventArgs
Ġinputs
Ġfif
Ġvision
cy
ĠSeries
)(((
Ġtrading
Ġmarker
Begin
Ġtypically
Ġcauses
dropdown
_DEBUG
Ġdetect
country
ĉR
appy
Ġcref
('<
"=>
ĠLE
reader
Ġadministr
Ãµ
ucket
Ġfashion
.char
izar
Ġdisable
Ġsuc
ĠLive
issue
Ġmetadata
flags
ĠðŁ
Ġcommitted
Ġva
Ġrough
Ġhighlight
_vars
VO
Ġencoding
-Z
_sign
$("#
Ġrain
reatest
ĠEND
Selection
Ġcandidates
Ġsav
.Empty
Ġdecisions
Ġcollabor
ridge
feed
ression
Ġpersons
VM
ega
_BIT
According
acked
Ġdollars
_loss
ĠCost
Notification
Ġprostit
Ġauthority
.rec
Ġspokes
ĠToday
istant
ĠHead
âĢĿ.
ertainment
cean
culate
Ġven
However
_arr
Ġtokens
Graph
ĠJud
ĠVirgin
ĠSerial
unning
Mutable
agers
.csv
Ġdeveloping
Ġinstructions
Ġpromise
Ġrequested
_encode
/"
ĠIcon
uilt
-day
Ġintelligence
.IS
ĠObservable
ĠHard
Bool
idential
.Anchor
Ġselling
CI
AGES
tle
bur
UFFER
RY
Ġbigger
Ġrat
Ġfamous
Ġtypename
Ġexplained
Ġnuclear
-N
Ġcrisis
ĠEnter
Ġanswers
/${
/pl
Ġsequ
_next
mask
Ġstanding
Ġplenty
ĠCross
ĉret
dro
ĠCast
=true
ĠChris
icio
ĠMike
Decimal
addComponent
Len
Ġcock
Ġ#{
URN
<tr
Ġauthorities
Resources
-H
Bottom
_qu
puter
esterday
Dispatch
since
Ġfamiliar
,i
VC
Ġment
,C
Ġfreedom
Ġroutes
ĠBuy
Ġcommands
Ġmesh
/C
ĠSettings
-style
Ġwitness
Ġcle
Ġunion
efault
aret
Ġthoughts
Ġ----
_process
_us
ingly
UES
Touch
ĠÐ¼
_open
ĠVec
Ġreward
.Click
/:
Ġnie
Changes
Month
ï¼Ł
Ġexecution
Ġbeach
(Integer
ĉa
/'
.FontStyle
Ġabort
ĠSingle
(isset
Ġdp
Ġ}}</
ĠMa
.Rows
ĠPet
%)
rand
Rule
Ġhel
RITE
Ġquiet
Ġratio
ĠCONDITIONS
osoph
ĠIL
Ġadvent
cap
;</
ĠUSB
Driver
Ġours
ĠJohnson
.K
_delete
.q
ĉstr
/common
ĉstring
ĠPDF
acts
.Action
ĠQuery
.response
ĠGirl
Ġprocesses
<Integer
imo
Ġadds
Ġentirely
Ġwash
/************************************************************************
Ġanimated
Ġprofit
encing
/S
ĠSym
Ġmanual
Download
Ġ(!$
Ġmotion
webpack
-bottom
Ġgratuit
PG
(:,
Ġera
Ġho
ĠJim
quir
ĠBASIS
Ã¡n
DER
Ġexpensive
_co
Bounds
Well
ĠDemocratic
ĠâĨĴ
.Rem
_SY
names
ĠVi
Ġisinstance
\">
Ġ*=
ĠPS
Ġdangerous
[p
OME
Other
ĠStringBuilder
Points
heading
Ġcurrency
Ġpercentage
_API
Ġclassic
thead
ĠMO
FE
Idx
await
ĠÃ¨
Ġaccident
Ġvariant
Ġmyst
ĠLand
ĠBre
Ġharm
ĠAcc
Ġcharged
iones
Visibility
arry
ĠLanguage
Ġwalking
ifer
Ġleadership
.From
ynam
Ġtimestamp
ipt
ĠHas
REFER
ĠIts
Ġlistener
UTE
_description
Ġexperiences
Ġcreates
RS
cart
black
Ġchoices
war
Ġ'''
Ġordered
Ġevening
Ġpil
Ġtun
ĠBad
(app
random
Ġexplicit
Ġarrived
Ġfly
Ġeconom
-mail
Ġlists
Ġarchitect
ĠPay
Ġds
ĠSol
Ġvehicles
Hz
-com
Ġking
_equal
ĠHelp
Ġabuse
Ġextr
Ġchemical
Ġorient
Ġbreath
ĠSpace
(element
wait
DED
igma
Ġentr
Ġsob
-name
Ġaffected
ika
Ġcoal
_work
Ġhundreds
Ġpolitics
subject
Ġconsumer
ANGE
Ġrepeated
Send
Ġ#[
Ġprotocol
Ġleads
useum
Every
Import
(count
Ġchallenges
Ġnovel
Ġdepart
bits
.Current
Ġ`${
oting
(\
Ġcreative
Ġbuff
Ġintroduced
usic
modules
Are
-doc
language
_cache
Ġtod
?></
omething
Ġhun
aters
Intent
Ġimplemented
ĠCase
Children
Ġnotification
Renderer
Wrapper
Objects
tl
.Contains
Plugin
.row
Ġforg
Ġpermit
Ġtargets
ĠIF
Ġtip
sex
Ġsupports
Ġfold
photo
Ġgoogle
$('#
Ġsharing
Ġgoods
vs
ĠDan
Rate
ĠMartin
Ġmanner
lie
.The
Internal
ĠCONTR
Mock
RIGHT
Ġ'{
Ġcontrols
Mat
Ġmand
Ġextended
Ok
Ġembed
Ġplanet
ĠNon
-ch
)",
epar
Ġbelieved
ĠEnvironment
ĠFriend
-res
Ġhandling
nic
-level
scri
Xml
BE
ungen
Ġalter
[idx
Pop
cam
Ġ(((
Ġshipping
Ġbattery
iddleware
MC
Ġimpl
otation
ĠLab
<form
ĉname
ĠGames
ray
Extra
Two
(player
ĠLes
Â°
Ġcharset
Ġjourney
eting
âĶ
Ġdin
Ġperman
Ġsolve
Ġlaunched
Ġnine
Ġsending
Ġtelling
.password
ĠMatrix
eric
Ġgrab
.u
ĠLibrary
Ġdebt
INK
.findViewById
Ġfrequency
.ad
_TEST
Ġnegot
ĠAfrican
sender
Å¡
Global
Ġexperts
Ġdepending
gray
Ġjudge
Ġsentence
losure
Ac
Ġtrace
Edge
Ġfriendly
Ġconcerned
blog
Ġclaimed
}'
integer
_tree
ĉcontinue
xi
Ġaccepted
_one
ĠEducation
ublished
gon
appoint
outs
Ġmining
Ġsongs
Ġherself
Ġgranted
Ġpassion
ĠLake
Ġloan
uent
chant
Ġdetailed
except
_cmd
ĠHE
Related
zt
Ġspecifically
Static
Ġcarried
ANS
\":
Created
Ġcul
]-
_api
FP
Ġsitting
Ġ"")
ĉgoto
ĠEqu
Ġassault
kins
ancer
ogen
Ġvoters
ĠProt
Descriptor
ãĥ¼
.Assert
bsites
oster
-menu
Ġarms
.Client
.background
avity
Ġvul
_MASK
Ġhousing
Ġbear
_iter
pired
Ġmarkets
ĠStudent
Ġticket
Ġmillions
flater
)=
Ġrecover
ĠForce
ĠBoth
Ġvictim
ĠDisc
report
Ġfourth
ĠAssembly
/user
NullOr
textarea
Ġath
Ġ([
Ġchannels
ĠJustice
choice
LOBAL
exec
emale
Ġelem
_le
Ġresponsibility
ĠTw
ICATION
Ġelseif
Ġfo
asts
Ġtreated
sen
ĠVict
sumer
_BASE
Ġast
>{{
ĠResource
ĠStandard
ĠPrem
updated
ivalent
Ġassets
_temp
Ġinterests
Ġhardware
ĠRom
ĠShare
Ġ*,
ĠTake
ĠImages
_CHECK
(typeof
ĠJun
\<^
Ġliqu
Ġworst
ymbols
ĉĉĉĠĠĠ
Ġdrivers
ĠDocument
eno
ĠTechnology
Ġapproved
umps
Ġsnow
formance
_ASSERT
uits
ÙĨ
Ġdifferences
.Visible
ĉĉĉčĊ
ĠPs
_fetch
Ġtodo
Ġsel
urers
invalid
Ġtweet
VEL
Ġresearchers
Ġsprintf
ĠRO
Ġpel
.Trans
Ġillegal
dialog
smarty
lg
_MIN
Ġhero
final
Ġpp
.Le
Ġci
ĉRT
Ġsuggested
pdf
aching
ĠRo
ĠProperties
ĠSi
Ġbuying
Ġmu
Ġlands
ifiers
ĠFILE
ROUP
Ġholder
ĠSon
Ġsympt
.route
)?
Ġargc
Ġfort
Ġcasino
_category
Ġforum
prefix
apture
Tube
ems
imize
Ġnue
aus
course
ATOR
()),
Advertis
INGS
Ġacknow
ĠKorea
pling
Ġworker
PLIED
hal
ĠRichard
Elements
ĉĉĉĠ
star
Ġrelationships
Ġcheap
ACH
ĠXML
,&
ĠLouis
Ġride
_FAIL
Ġchunk
[s
_OUT
Ġchosen
_[
/(
ĠJeff
_sl
priv
ĠCanadian
Ġunable
_FLAG
Ġnos
high
Ġlift
fun
(){
elly
yclerView
_as
_LIST
Ġradi
.getValue
ĠAngeles
ĠSpan
_instance
itors
Ġmigration
AK
Oh
Â®
.selected
ĠGT
Ġadvance
ĠStyle
.DataGridView
ection
Ñİ
pio
rog
Ġshopping
ĠRect
Illuminate
OU
ĉarray
Ġsubstantial
Ġpregn
Ġpromote
IEW
.Layout
Ġsigns
/.
Ġletters
Board
ctrl
"\
ĠJones
Ġvertex
Ġja
Ġaffili
Ġwealth
ĉdefault
Ġsignificantly
Ġec
Ġxs
actual
.per
_step
anvas
mac
Ġtransl
ĠĠĠĠĠĠĠĠĠĠĠĠĠĠĠĠĠĠĠĠĠĠĠĠĠĠĠĠĠĠĠĠĠĠĠĠĠĠĠĠĠĠĠĠĠĠĠĠĠĠĠĠĠĠĠĠĠĠĠ
Iterator
Ġoch
agnostic
ĠDuring
ĠDEFAULT
Ġtill
Ġsignature
Ġbird
ĠOl
ĠIr
HS
avatar
ESSAGE
Ġelev
Ġmt
ĠNav
Ġrelax
Ġplate
ITEM
(date
.not
Ġgrade
iences
High
ĠDIS
disabled
QUI
Ġnoise
aux
ĠUP
osa
Ġvoc
Ġ))
ocom
_OFF
ĠDb
Lock
.eclipse
,d
ĠDraw
Ġ"(
Ġvisited
ĠâĪ
Ġsucceed
Ġimpossible
aire
ĠTurn
Ġdish
FG
Ġsensor
ANN
aba
Ġsurg
Ġfp
_an
-J
-G
ĠJob
Convert
ĠKEY
Ġauthors
_server
\r
Ġ-*-
flex
Ġsoc
Ret
Ġsalt
ĠClear
(page
-danger
Ġrooms
conv
#{
.op
ĠArea
_SC
hen
Ġbegins
-y
Ġexcited
Ġignored
Ġbonus
student
ĠMember
Ġrelatively
ĠLow
ĠProdu
ateway
posure
Ġthick
aniel
(view
ĠCrush
Extension
Il
eed
LOC
.im
.Items
Ġconflict
.prevent
ĠonCreate
uv
iser
Ġwave
Mar
ĠCommunity
iche
ĠNothing
[m
ĠLee
riends
Ã¨re
!!!
anz
.result
ĠSK
_PARAM
Ġdemocr
BackColor
.exists
"It
(options
razy
aser
\Database
alendar
_ass
vertex
inecraft
Warning
argo
Ġactor
ĠInstead
ĠUsing
Self
@interface
Ġspeaking
ĠParis
ĠLICENSE
.node
ĠFood
EIF
ĠBi
.Start
ĠIB
Ġuniversity
ĠHeader
.product
Copy
etc
rical
Ġ>>>
books
Ġalgorithm
Ġ'__
(javax
Ġnumerous
Share
Have
Ġrecru
Ġprove
.substring
health
ÐµÐ»
Ġdecimal
Ġcommission
scription
xC
Ġsummary
atted
Ġcloser
finished
ĠWood
_fields
ku
_items
Flag
Ġconfidence
ĠFederal
dux
Ġcompat
Ġvertical
Ð¹
Ã¨s
_manager
IDE
:",
ĠWay
ÑĪ
Temp
ĠSTR
ritten
Sync
ĠAV
ĠCEO
ĠGuid
Ġenvironmental
Ġcorresponding
ĉconsole
Ġjustice
ĠJS
Ġlived
gar
ĠGraph
ĠStat
ĠiPhone
.al
ĠHD
Ġoccur
Ġthreshold
Ġonclick
REG
.GraphicsUnit
Meta
Å¾
Ġcum
.gnu
Ã«
Ġobtained
Ġcomplaint
Ġeating
Ġtar
_task
Ġopts
(to
Pass
Ġplastic
tility
ĠWin
.preventDefault
pile
ĠGar
Ġquantity
_last
Ġgreatest
Dao
_DIS
ĠUsed
ĠHP
riting
SION
blue
domain
Ġscores
Normal
_admin
ĠASSERT
Then
***
dist
lon
Ġhate
shal
ImageView
database
Ġpand
Ġlogic
=false
bg
ĠConfiguration
Ġnur
OG
Ġmarried
:+
Ġdropped
Ġregistration
ultiple
izers
shape
.copy
Ġwearing
ĠCath
Ġdedicated
Ġadvoc
ĠFamily
Ġstatements
ematic
ampionship
Ġmotiv
ĠHave
Ġblow
Job
cert
_vector
install
ĠCOPY
embed
DIR
ĠSpring
Ġexhib
cdn
ĠComment
ĠOptional
.player
ĠDark
(pos
ĠShould
Ġcentre
ĠGuard
Ã³w
Ġtrouble
ENER
(unsigned
_service
Ġns
uling
ĠMexico
ĠNY
mysql
Ġlic
Mr
-fl
ĠCustomer
idi
rible
ĠÐ¿ÑĢ
Ġsizes
_STRING
validation
ĠJon
(Http
addClass
Nodes
Ġfragment
Ġspoke
Ġwaste
Join
Ġillustr
eli
cient
Ġaid
Ġprosec
Ġpassing
Ġfaces
Shape
_Z
iti
Ġalle
Ġrobot
ĠĠĠĠĠĠĠĊ
ĠSpe
Ġreceiving
ĠDetails
Ġ")
mg
_REF
Ġcomparison
*,
ĠFound
_session
(U
/F
Ġxxx
Network
ders
Ġcapture
Ġcorre
ĠLtd
ĠAdv
[@
Ġclip
Mill
ĠProfile
Ġendif
Ġoblig
describe
.element
riterion
LD
ered
Ġfavour
score
ĠFilter
attributes
Ġchecks
Inflater
ĠPlus
Ġscientific
Ġprivacy
Head
Ġfeat
Ġdegrees
ĠPale
;">
Ġfilms
ĠAudio
ĠTag
ĠEnergy
itar
parator
Ġfellow
Ġevt
ĠTri
ĠDAM
cloud
ĠPassword
ĠDemocrats
ĠAcad
$lang
Ġreb
Ð½Ñĭ
ĠBur
readcr
Ġhex
Console
ctl
ousel
ĠWilliam
Ġaz
_PORT
Ġpractices
Ġanywhere
ĠPosition
iams
.username
placeholder
Ġoder
ĠSecretary
ĠiT
mond
events
?âĢĿ
.Sub
Ġattached
ĠnÃ£o
Ġestate
.action
Ġfigures
Ġsubscri
.tag
nam
.plot
noon
liament
Character
.tab
Ġwinter
ĠVariable
Ġtrees
Ġproud
(V
_load
Ġhier
ĠEcon
Ġfd
Ġvictims
Rest
iana
Ġfake
.Println
Ġstrlen
Ġsad
Ġble
Prot
Ġbuttons
Ġtelevision
Ġlogo
extension
ĉj
stein
aciones
Ġsimp
Ġrecorded
Ġbrings
Ġprincipal
Ġfees
(source
kdir
Ġutils
Ġcorrectly
fil
Ġwel
Pair
-button
scale
verify
[c
Ġ---
Ġescape
ikes
LowerCase
ician
Ġchapter
ĠTYPE
Ġshadow
Ġawesome
WE
elif
Ġlambda
Ġdistinct
Ġbare
-off
Ġcolour
.appendChild
olec
aga
.fill
ĉsuper
Ġadj
(position
.getItem
Short
Ġtotally
VD
ĠTre
_ep
vements
ĠSolution
Ġfundament
Follow
Ġfacility
Ġhappening
OF
.textBox
Span
ĠÂ«
iden
Ġexceed
(parent
Ġcp
Ġhasn
Ġpri
Ġconsequ
nen
ĠINTO
Ignore
ĠFuture
Ġcarbon
ĠSteel
fmt
okie
Ġspl
(title
-info
Ġdeals
Ġfixture
ea
Div
Ġtested
_return
upported
ĠCook
Ġpaying
ĠIll
Ġarrested
ĠPrime
_callback
driver
Once
abb
_bytes
ĠSets
(Object
Ġcc
Ġshell
alo
);//
(log
ctors
)</
Ġneighborhood
ailability
vol
Ġyouth
Ġtechniques
ĠSchema
uh
mente
Ġrepository
imm
Ġcookie
JS
ovies
:{
Complete
Since
Ġlaugh
_BO
enable
ĠDoes
ĠWalk
what
kes
Ġmultip
iments
eur
Ġvictory
Generator
ĠMos
rovers
Ġcompute
Ġproviders
ĠMedic
LP
_CONFIG
Ġveter
sters
_window
umeric
ĉĉĉĉĉĊ
.Response
Ġreplaced
.root
-free
-container
Ġmatching
ĠEditor
=${
ĠSaf
Ġsind
(buffer
.edu
ĠNFL
aya
Ġdogs
Ġdesire
ĠMiddle
Cart
Theme
Ġmob
Ġdisplayed
igit
Ġadults
"""
Ġdelivered
visible
<<<
ĠGO
scroll
xE
Ġassigned
ĠBool
Ġwp
Ġcombat
ĠHaw
.-
Ġsupporting
.Content
ircraft
Ġspin
ĠCR
.my
à¥
tpl
Ġspaces
?,
ĠSyria
Ġpatterns
-box
Ġframework
/%
(long
Ġteaching
ARNING
_keys
Ġtables
UNC
inations
-weight
radio
ĠPac
.server
.CharField
ring
Ġquote
anna
Ġwerden
Ġcream
Ġmachines
-k
Ġstim
ĠStock
rick
Ġimportance
rx
Ãµes
ÙĪ
Ġstroke
agra
Ġtaste
ĠDEBUG
Thanks
ĠRequired
ova
Media
ĠsiÄĻ
(base
posts
ĠfileName
Checked
Ġinterrupt
python
pair
Ġcircle
Ġiniti
_stream
Ġcompreh
learn
Public
Ġhumans
Ġbringing
ographic
_layer
-like
upportInitialize
idebar
Ġvotes
Ġdesired
Mask
Ġrelation
.Instance
Help
Ġinspir
ĠMono
ViewModel
ometimes
ĠbackgroundColor
Ġrotation
Ġmari
/test
INSERT
Star
phy
Ids
_GET
Ġincreases
_close
_FORM
aza
TEXT
ĠÃ¤
ĠVan
Ġlights
ĠGuide
Ġdates
.Command
aman
Ġpaths
.edit
ĉadd
dx
Ġreaction
ĠBeach
.getMessage
Environment
interest
Ġminister
Ġreaders
ĉF
Ġdomestic
Ġfiled
City
Ġmapping
ĠDES
Ġrepair
tics
ixture
Ġnombre
.ISupportInitialize
zo
.IsNullOr
ĠCarolina
ĠDer
ĠEVENT
Ġgest
Ġhist
resources
Ġorphan
.Are
ĠInvest
REFERRED
.Logger
ĠRoman
Ġcultural
feature
pts
bt
Ġdot
Ġdiam
uspend
_access
Ġsurprise
abil
Ġvirt
Ġbomb
aron
_IS
Ġvast
Real
epend
icted
Ġpicked
ĠFL
ĠRepublicans
.zeros
Pressed
sup
.Core
Microsoft
services
agic
iveness
Ġpdf
Ġroles
ras
Ġindustrial
Ġfacilities
Ġni
Ġba
Ġcls
ĉB
Customer
Ġimagine
Ġexports
OutputStream
Ġmad
(de
Ġfro
hus
Ġcommittee
ìĿ´
,x
Ġdivision
(client
(java
optional
.Equal
ĠPhys
ingu
Ġsync
ĠNa
}}</
OLUM
itÃ©
Ġidentifier
owed
Ġextent
Ġhur
VA
clar
Ġedges
Criteria
Ġindeed
inherit
ĠNight
Ġreporting
Ġencounter
Ġkinds
_pred
Ġconsidering
.(
Ġprotein
Typ
gricult
ĠBall
@Component
ĠEss
ĠRub
ulp
ĠĠĠĠĠĠĠĠĠĠĠĠĠĠĠĠĠĠĠĠĠĠĠĠĠĠĠĠĠĠĠĠĠĠĠĠĠĠĠĠ
itud
.attr
iente
Ġspell
ĠJoe
ENTER
_host
itan
Ġmatters
Ġemergency
uated
ĠChat
={'
contri
arker
iper
Ġscheme
(stderr
Ġ*(
ceiver
.column
Ġmarked
_ATTR
Ġbodies
ĠIMPLIED
Gap
ĠPOST
Ġcorporate
Ġdimension
Ġcontrast
erview
ĠERROR
Ġcapable
Ġadvertising
urchase
ĠPA
ĠFrancisco
Ġfacing
ãĢĮ
git
Ġbeer
Ġsky
download
ĠCur
mc
anny
.floor
Ġcriteria
ĠparseInt
Ġaspect
Ġbundle
Could
Ġtank
-id
Ġhurt
Ġbroadcast
OKEN
ownt
nullable
Cap
Ġalcohol
ĠColl
ĠHelper
ĠAf
.method
Ġplanned
pler
ĠSite
Ġresc
oment
ĠJavaScript
SERVER
Ġrhs
eres
(",
ifi
.fields
Ġparking
Ġisland
Ġsister
Constraints
ĠAust
dim
_points
Ġgap
_active
Ġvoor
ĠPO
Bag
-scale
lambda
.Dispose
rule
Ġowned
ĠMedical
entries
Ġsolar
Ġresulting
Ġestimated
Ġimproved
Duration
employee
$.
Actions
Like
,(
(Request
%s
.Open
Ġpixel
Ġadapter
Ġrevenue
ogram
ĠLA
ĠMachine
ĠØ§
Ġfle
Ġbike
Insets
Ġdisp
Ġconsistent
aÃ§Ã£o
gender
ĠThose
perience
.BackColor
.play
Ġrush
Ġaxios
Ġneck
_mem
.PREFERRED
_first
CB
ĠWidget
Ġseq
har
Ġhits
ĠâĤ¬
Ġcontained
rient
water
LOAD
ĠVirginia
ĠArm
Ġ./
Â»
_root
Ġassistance
[],
sync
Ġveget
escape
icer
boost
ĠFloat
-W
*>
Ġ$(".
.pos
Ġboys
Ġwedding
Ġagents
="_
ĠArmy
Ġhint
vision
Ġtech
ĠConnect
Ġlegend
ĠBet
.Base
Subject
Ġlit
Remove
Ġ":
ĠFinal
pearance
ĠiTunes
Ġparticipants
ĠPython
Ġbusy
iel
vertices
ĠtemplateUrl
ĠClose
Img
ĠCorporation
timestamp
Ġextend
Ġwebsites
Ġpossibility
Ð¾ÑĤ
ĠkÃ¶
Ġmeat
Ġrepresentation
Ġĉĉ
_START
.apply
ĠValley
ĠSuccess
Hi
Ġnob
ĠIEnumerable
_select
geo
Ġturning
Ġfabric
Ġperspective
ĠSn
Thank
;j
.Parameters
ĉĠĠĠĠĠĠĠĠĠĠĠ
Ġfacts
Ġunt
.instance
################################################################
-end
ĠJOIN
ĠHen
Ġuri
ĠÐ½Ð°
ĠInfo
Ġconducted
ĠÃ¥
OURCE
Ġwine
John
.Errorf
ĠAge
ounded
Ġrealize
Ġ];
Ġsubsequ
,m
(User
iano
Ġaccompl
isp
.std
ĠBed
.setAttribute
BR
keep
ĠALL
Ġisol
amma
Package
Ġoccasion
-success
ĠLIMITED
strip
istribution
Colors
Ġ+:+
DidLoad
aler
Ġtid
ĠLED
ĠLinked
ĠCart
_READ
Ġkilling
ĠPHP
fection
Ġinstances
cv
"/>
Ġsf
Ġtaxes
_location
ĠBitcoin
uable
rank
ignore
track
ÐºÐ°
Ġshouldn
ĠOP
Ġkm
Ġhelper
_head
ĠWhether
oco
_bl
Ġstatistics
Ġbeauty
Ġtog
tip
ëĭ¤
Ġcsv
(sql
stdlib
weak
Ġlikes
Äį
Ġrepeat
Ġapartment
Ġemph
_edit
Ġvit
ĉtype
Even
uten
Ġcircumstances
bian
Ġsugar
Windows
ìŀ
Ġobserved
/data
Ġcalendar
Ġstrike
ĠRES
_sc
fony
orem
(z
power
etect
ĠSat
.description
Ġgang
ĠSports
ongs
ĠBundle
.sum
once
Ġaccused
Ġexplore
Ġapproximately
Ġlosing
thesis
ĠFund
Ġdiagn
Autowired
properties
Ġ_.
Ġcnt
cedure
Ġyy
Ġgrant
sock
.innerHTML
ĠCONFIG
='$
UND
Ġglob
Ġdire
uffle
_MEM
Ġauthentic
>("
Ġdecade
ĠImport
Ġoriginally
ĠjQuery
Ġindicate
Ġourselves
Sw
.lbl
enerate
Ġbasically
ĠHom
Ġ+#+
ĠBritain
ĠKar
toEqual
.stop
Ġmodal
isi
Ġsuggests
Ġdtype
Ġtur
bf
Ġconnections
ĠBefore
isted
mouse
Ġpulled
.build
Ġlegislation
Ġforth
pad
ego
.Now
Ġexciting
Ġcompr
Ġshares
Ġrig
green
_vec
Ġenumerate
Auto
icator
ĠRay
asse
Ġholiday
Ġnullable
gun
_details
Ġwrapper
seq
ĠYoung
juana
Ġ"__
license
serve
^(
iders
.Remove
ropdown
'S
pin
(token
.Default
Ġreasonable
ampion
ĠSociety
Ġbei
erves
rad
ĠFox
_images
Ġwheel
')[
Ġcfg
(By
Constructor
Ġvary
.swift
Ġproxy
ĉH
ĠAnother
ĠPen
Ġchecking
Ġjest
manager
Origin
ugs
oir
><!--
Ġexpressed
Ġmoder
Ġagencies
Ġih
-hidden
iously
ĠRod
Ġsole
Med
.Any
Ġpc
bal
Example
ĠSale
Ġstrip
ĠComp
Ġpresidential
Most
putation
(ref
ĠFour
_filename
Ġenforcement
Ø¯
ĠGeorg
weights
/l
Ġaggress
Ġdrawing
andy
<I
-j
aka
href
Ġteachers
_Q
(it
ĠMB
Ġtemporary
irebase
stra
(label
oup
Ġtopics
Ġportion
idos
ĠJewish
Ġrecovery
Ġstands
#[
Ġafternoon
ĠArticle
_att
Ġexplan
ĠPak
.setOnClickListener
.children
Ġik
+(
lag
Ġdisk
Ġcontrovers
">&
asp
Ġwie
ĠAustralian
ĠYouTube
Attr
contains
duce
ĠMatt
atern
Ġvolunte
Ġnewsp
VP
oltip
Ġdelegate
_meta
Ġaccurate
ĠExample
%,
ĠDaily
Ġcabin
ĠSW
Ġlimits
kip
Ġarmy
Ġending
Ġboss
ĠDialog
Also
="#"
ordan
rowse
-min
Ġ"&
_loc
UX
Ġdevelopers
Ġaccuracy
Ġmaintenance
Ġheav
Ġfilters
.ToolStrip
Ġnarr
ĠEmp
ORDER
ĠMobile
.Serial
.output
.col
Material
uma
Ġconsumers
shift
Ġpued
Ġmini
collection
Ġkan
.center
History
Ġbench
());
itories
Ġcrowd
_call
Ġpowers
-E
Ġdismiss
Ġtalks
ĠChannel
forward
_control
/src
iest
************************
Ġbeta
(color
_OBJECT
ĠApi
Ġeffectively
Camera
sd
ussy
Dict
ĠEffect
ibilities
Ġreturning
ĠFar
Ġ'')
Ġmodules
ilation
Ġ(%
TRGL
Ġstorm
onna
ĠEXP
Ġspons
Ġdispl
ĠĠĠĠĠĠĠĠĠĠĠĠĠĠĠĠĠĠĠĠĠĠĠĠĠĠĠĠĠĠĠĠĠĠĠĠĠĠĠĠĠĠĠĠĠ
fall
ignKey
_US
etrics
Ġhandles
TL
_amount
owa
brand
ĠTool
Ġusual
.Z
crement
adium
stock
Ġserving
ĠBon
Ġlinear
ĠTarget
ĠRadio
HL
Shader
omatic
agues
inity
diff
_iterator
quot
callback
Ġsymptoms
[_
ĠBul
ĠFeb
undo
_account
Ġtypedef
Ð¸Ñģ
tras
UserId
ĠPenn
ĠSupreme
}>
userId
ĠKim
Ġga
Ġartists
ĠAbstract
okemon
Ġham
oval
Ġcha
aten
Fixed
Ġvulner
ĠParameters
quantity
.Clear
ServletRequest
Ġya
Ġsoul
transaction
Ġsolo
Ġpairs
ĠGre
_word
ĠCC
Ġgi
zie
Ġscheduled
rotation
gypt
ulous
::_
ĠEll
<!
ĉĉĠĠ
lp
aha
Copyright
Ġdram
Ġdiagram
ĠMem
Ġgarden
Comp
Ġattempts
uffix
>()
Ġphilosoph
_rel
Ġsv
.second
anto
.Json
ĠTele
_local
_send
Ġaspects
ìĹ
IBLE
Ġrail
Ġwidely
ashed
iar
inf
upper
django
_results
issing
Ġequivalent
OUND
Ġty
Ġpotentially
Advertisement
ĠRecord
resentation
_widget
ounding
Ġreligion
Ġconsc
ĠLim
.am
Html
Ġ':
PATH
_spec
orted
idades
_shape
Ġkeeps
.Save
ĠLoc
ori
ĠTEST
unicip
Ġregions
Ġbelieves
/en
posite
{'
prepare
_const
sample
ĠWilliams
Ġstrt
_Get
ĠAndrew
.active
Ġlayers
VisualStyle
azy
ĠKn
Ġacid
ĠAsia
Ġexcess
ĉmy
Ġkeyboard
ensus
Ġcrew
Ġmissed
master
ĠWild
Ġnewly
Ġwinner
Ġstub
icode
.move
Domain
ĠSar
Ġforest
LED
claimer
.exit
ĠWindow
Ġresistance
ĠCHECK
("-
ĠRyan
Ġpipe
Ġcoast
DEF
//!
_off
exit
Ġultimately
imitive
ĠKeep
Ġhistorical
Ġanyway
ĠJackson
ocker
ERN
ĠUINT
yntax
ERY
isms
Ġcn
Ġoccurs
Ġ;;
TextView
AE
/img
Ġyesterday
-default
Ġtiny
Ġproc
Ġalive
ĠREG
.th
earing
.getLogger
<link
_login
Folder
abc
lyphicon
Ð½Ð¾
Ġnoticed
odigo
Ġedition
imator
.Enabled
.parseInt
Ġyards
ĉĉĉĉĉĉĉĉĉĉĉĉ
Ġverbose
Ð»Ñı
_BY
.login
ĠMid
Ã©es
Ġglo
Ġbuildings
Ġze
ĠIter
Ġtube
ĠPot
\M
<th
bridge
ĠScript
ĠModule
Ġvacc
Ġinstallation
vy
VisualStyleBackColor
ĠSM
.total
bat
Ġfinds
Ġatmos
Subview
izard
Ġreplacement
licated
apis
Ġlogged
ĠLeft
Gui
_Type
tm
Pad
Ġhousehold
Ġrele
Ġproposal
_CLASS
::::
Ġinfrastructure
Inject
/html
Ġads
izza
Ġmg
ctrine
<html
-image
Ġattorney
<m
(',
Ġcann
Ġprintln
oose
Ġyellow
.exp
payment
ĠtableView
away
Ġopposition
ĠAgain
ĠHandle
Ġexclusive
inar
Ã©r
ĠCODE
emporary
Ġreact
pipe
cz
.activity
Ġlargely
Ġdiss
axy
esis
ĠRen
Ġcorn
.UseVisualStyleBackColor
days
Ġfruit
Insert
_enc
Est
_dec
ĠLuc
ĠÃ¼ber
parameters
PERT
express
_profile
Unknown
Ġrevolution
.address
_require
Ġuniform
ĠPack
lar
ĠUITableView
Ġdepends
Validation
confirm
Owner
Ġtrib
het
ĠIde
ansas
Language
uet
ĠPo
ĠSteve
Ġcontest
_DEFAULT
Ġapparently
REEN
Ġfrequently
Ġtradition
ocolate
SI
ĠArgument
Focus
erte
ĠLayout
Ġdx
Ġgenerator
ĠWait
Policy
lights
.Execute
Py
Ġbedroom
eda
raid
ĉsize
Ġancient
Ġpump
Ġdw
Ġ(!(
Ġspecify
(status
ĠFBI
.exception
Ġremark
lymp
antee
Upload
ernet
inent
ĠRender
dm
ĠMemory
rich
ĠTools
Ġkne
Ġperm
bad
Ġdinner
.reset
ĠjLabel
Feature
.Service
Ġreferred
.classList
ĠinitWith
ĠTextView
Ġneither
Ġcounty
Ġ"{
Ġtack
className
ĠUSER
Ġrenew
``
getName
Ġbrown
Errors
erto
Ġsustain
SO
letes
ĠInvalid
Ġenemies
unge
Ġexistence
erra
ĊĠĠĊ
utorial
#a
pay
charge
ĠIre
atest
Ġexplos
Ġfired
NER
ĠTy
icion
Uri
Ġobviously
ĠColum
Ġ'+
ĠDevice
-related
_ARG
Ġvor
ĠLesser
_OP
Serializer
Ġupgrade
Light
Ġcodes
Ġwrites
food
ĠÃ©t
@section
Ġtracks
Ġseriously
cht
(sizeof
Ġimmediate
Ġscientists
Ġ{$
_ne
.AnchorStyles
Ġaccommod
ĠHarry
Ġsight
ĠPalest
ersistent
ĠÑĥ
-input
Ġcoordinates
Â·
Welcome
.conf
Ġgrew
Ġbold
ĠCPU
(my
Ġperfectly
Ġmoments
ĠMovie
-data
ystal
_WIDTH
ĠScreen
Ġdisap
Ġreduction
.GetComponent
_MODULE
Ġgeneric
Ġdy
aller
Ġcurl
ĠBody
Ġbanks
,t
avg
Ġevil
Ġmanufacturer
Ġreceiver
Columns
Ġingredients
ĉout
ques
.Load
Ġslowly
ĠTown
ĠCell
_normal
_prefix
ĠAlert
("{
Ã¤r
âĢľThe
ĠMD
Ġcourses
athan
occ
ĠSER
esign
Addr
=['
("./
]}
.font
ĠInstagram
ĠBorder
oda
Ġhall
Ġrum
_bit
Ġsaving
_down
Random
_register
(Context
Ġopposite
Room
YES
Ð°Ð½Ð¸
Ġenjoyed
_run
Clear
âĢĺ
ĠFord
onic
osten
"])
_auth
Ġsufficient
LES
Ġphen
Ġoh
_csv
Ġroutine
.AreEqual
aylor
Ġbasket
_COMM
rypted
Sim
ĠShop
Ġstudio
atos
(W
[string
Ã¤t
oga
Ġshr
Ġsick
Another
Ġdoors
_NE
ĠTHREE
.order
razil
Ġmaps
_TRUE
translate
Ġnearby
Ġnach
LOAT
batch
Ġlux
ashes
angers
âĢ¦âĢ¦
_EVENT
_UP
Ġacts
inv
_METHOD
ccion
Ġretain
utch
ĠÐ±
Ġknowing
Ġrepresenting
NOT
png
Contract
Ġtrick
ĠEdition
uplicate
Ġcontrolled
cfg
javascript
Ġmilk
White
Sequence
awa
Ġdiscussed
ĠBush
ĠYES
.factory
tags
Ġtact
Ġsid
$$
ĠEnum
Ġframes
});
Ġregul
Region
fff
Ġcro
(com
="+
Student
Ġdisappoint
RESULT
Counter
Ġbutter
ĠHa
ĠDigital
Ġbid
">{{
ingers
ĠCountry
_tpl
/k
dating
:#
ĠDATA
ynchron
_body
ollywood
Ġvalor
ipient
oft
UBL
docs
Ġsynchron
Ġformed
ruption
Ġlista
RequestMapping
Ġvillage
Ġknock
ocs
"{
_flags
Ġtransactions
Ġhabit
ĠJe
eden
Ġaircraft
irk
ĠAB
Ġfairly
.inter
.Act
Ġinstrument
removeClass
.command
Ñī
ĉmem
(min
Ġot
Ġcolle
=s
timeout
Ġids
ĠMatch
ijn
zero
Ġnetworks
.gov
Ġintel
Ġsections
outine
(cmd
(dir
ĠLIABILITY
ĠBlog
Ġbridge
ĠCV
convert
ĠBern
_PO
eval
(set
tool
Ġpayments
Behaviour
Ġconcrete
Ġelig
Ġacceler
Ġhole
_o
TEGER
Ġgraphics
Own
Formatter
onder
Ġpackages
/a
ĠKnow
OrDefault
Ġduty
Wait
Ð½Ð°
_record
[t
Mesh
Ġongoing
.beans
Ġtan
Ġinterpret
asters
QUAL
Ġlegs
\Request
-file
_mutex
ĠSaint
//#
Ġprohib
(info
:=
linux
Ġblo
otic
ĉfinal
_exp
ĠStop
aping
(saved
_push
Ġease
_FR
ponsive
strcmp
oli
Ġextreme
Ġprofessor
Images
.IOException
Ġaddresses
plemented
Ġincorpor
ĠuseEffect
_OF
ĠDa
nombre
IRST
Ġdiscrim
Ġcompens
gregate
ancell
aches
ĠCriteria
$result
Destroy
Ġsecondary
Watch
ĠSem
ĠMcC
Ġacademic
Upper
::~
utral
ĠDog
aded
Validator
Ġderived
ĠsetTimeout
ĠKen
Ġtypical
ĠBob
Ġbounds
ĠSeason
Ġcrazy
ĠĠĠĠĠĠĠĠĠĠĠĠĠĠĠĠĠĠĠĠĠĠĠĠĠĠĠĠĠĠĠĠĠĠĠĠĠĠĠĠĠĠ
-router
ittest
ĠMir
Ġemotional
,v
cn
/st
onom
Ġdeclared
>.
ailing
Ġ/*<<<
Ġnormally
(Me
evin
likely
Ġpointed
ĠStack
Ġwalls
.Vector
mean
Ġlistening
adv
Ġswap
IFT
Øª
.argv
uls
<option
notations
Ġemails
ĠUkr
asta
ĠThus
ĠStone
Ġappeal
.âĢĻ
Ġregulations
Preferences
ĠPhone
ulf
ĠDR
Ġtechnologies
Ġparagraph
Ġnecessarily
.each
<float
resa
Ġunderst
Ġfinger
pressed
-by
iffer
watch
ĠBa
AIM
Ġweights
ĠRon
')}}
[self
periment
ĠtoString
xic
ĠCamera
aurant
Prefix
Ġinstitutions
:int
Ġexposure
pattern
ĠLinux
.number
redient
ArgumentException
ĠChief
"},
Ġelectronic
rong
erd
spNet
rait
/',
ĠOhio
Controllers
Ġcontinuing
ĠTemplate
ĠEth
sz
/env
Env
%.
arters
)((
ĠTABLE
ĠÃ®
perature
progress
Pres
ê°
implementation
Ġbien
Ġstreets
_MSG
News
###
:/
Ġcutting
xB
ressed
_ENABLE
lab
Ġcausing
bra
xFFFF
illy
pletion
will
_bar
Ġstructures
ĠImp
ÛĮ
Ġ<>
Ġ----------------
_BUFFER
.dir
Ġplain
Ġpeer
gg
oints
Ġsomewhat
Ġwet
Ġemployment
Ġtickets
irms
Ġtuple
sis
$sql
rig
Ġconversion
Ġges
Ġconfigure
egr
ĠCa
Ġ__('
ouston
.token
Black
Ġmagazine
AW
.IN
osing
Ġbroke
ĠCru
DELETE
Ġdestroyed
(Math
Ġapproval
-dom
ĠIII
tableView
Ġdesigns
Ġcrushing
Ġconsent
dirname
omp
Ġcrypt
?(
orough
.o
ĉlist
amsung
erring
Google
_pair
_INIT
remarks
Ġgear
Fill
life
Ġsuitable
Ġsurprised
_REQUEST
Ġmanifest
atten
Ġfrustr
ovement
.click
Ġii
Ġexpansion
igs
Parse
.Regular
Rob
_layout
ìł
Ġtranslation
ĠBeaut
Best
_COLOR
<label
Ġliquid
ITS
Ġprod
Ġoperate
UIKit
Ġnatur
argument
_detail
ĠCentre
Ġ"--
Ġ}}"
locale
.tv
_seq
Ġupcoming
Chart
ĠDivision
Ġclinical
Company
Separ
las
ĠHun
:s
Ġheading
[id
bia
Ġstretch
icide
Ġreprodu
.project
legend
enders
Ġresponses
Ġont
ritical
Ġrefuge
ĠLi
ĠThree
.controller
_INDEX
_FOR
\Models
jax
ĉexit
Ġâĸ
Ġcovers
ĉy
-.
INDOW
Ġfails
includes
Ġfault
Ġly
Ã±o
.slice
ILED
ĠPur
ĠAsian
_batch
.Max
vl
ĠCOPYRIGHT
Ġgiant
ĠManual
ĠCopy
ClassName
Health
Cursor
IBOutlet
Ġtwe
_labels
Ġcollected
Ġfurniture
Ġdealing
Controls
ĠHotel
cks
Ġchose
âĶĢ
odd
SR
ÙĬ
ìĦ
Ġaccord
ĠMove
ĠMode
ĠMock
Ġthreads
++++
ĠOptions
Refresh
ĠDid
']->
ucc
_channel
.abs
ĠWal
erior
Ġmainly
ĠDriver
NotFoundException
Ġcounts
eam
Ġ&=
Question
ĠAli
Ġanymore
detail
tail
Ġmile
ĠFair
Ġsorry
Ġsurrounding
Ġadm
Dev
Ġmarijuana
ĠSound
ĠAsh
FD
Team
.port
ubble
Ġasc
Ġintention
Acc
chi
usters
Ġinspired
seg
CLU
Ġmanip
Metadata
Connect
ĠBeh
Ġfindings
Ġassembly
world
Ġremained
Ġuid
(.
Ġmx
Loop
ĊĊĊĊĊ
Ġfantastic
who
aki
ĠBasic
ĠYet
ĠUsers
ikip
Ġheads
ĠMichigan
_it
ĠToronto
Ġrecording
Ġsubmitted
_variable
mediate
.graphics
Ġstood
Ġrear
velocity
_MESSAGE
ĠĠĠĠĠĠĠĠĠĠĠĠĠĠĠĠĠĠĠĠĠĠĠĠĠĠĠĠĠĠĠĠĠĠĠĠĠĠĠĠĠĠĠĠĠĠĠĠĠĠĠĠĠĠĠĠĠĠĠĠĠĠĠĠĠĠĠĠĠĠĠĠĠĠĠ
roles
ĠTour
_year
endment
amps
ĠIreland
mal
Ġyounger
Ġstruggle
Ġcable
ĠSDL
('-
anes
ĠNeed
.Row
Pol
ĠPH
_script
agem
ĠBas
_space
.loc
:i
adr
Ġengineering
iten
)&
Ġuk
ĠLittle
_COUNT
xA
ArrayList
Anchor
Ġhang
twitter
Ġcompetitive
.src
ãģĹ
Ġtranslate
ĠCreates
ooks
ĠRoll
/sh
some
Encoding
.resolve
Ġdesigner
ĠStorage
Ġza
ĠNever
Ġsomewhere
Ġboxes
.source
Ġpygame
Ġgrown
.tw
',['
Ġopponent
(src
.layer
APP
ĠActiv
Ġguests
ĠVALUES
.native
Ġamounts
.RE
Ġclone
Ġweren
Ġ"<<
_ac
Ġbreaking
Ġreliable
.POST
ĠSky
Ġ'&
ĠsavedInstanceState
asting
illion
comments
ulty
.menu
/config
ĠĊĊĊ
TODO
Ġpurchased
_cor
ĉauto
CompatActivity
complete
_graph
isodes
Ġsituations
ĠHor
Receive
âĢľWe
Ġentities
.assertEquals
ĠSans
vince
rompt
Ġ/.
.Select
ylv
Ġbatt
Audio
Ġincreasingly
.Bundle
Ġexplains
theast
.offset
Ġhal
Ġtechnique
_limit
Ġdrawn
AYER
Ġfeatured
yyyy
atin
phen
achel
!\
lower
ĠGR
Ġpag
ĠParse
Ġtou
Distance
IndexPath
Ġhell
sim
UTTON
Usage
elenium
ĠFall
Ġ".$
ĠMu
Ġcruc
Ġsont
REFIX
Ġinterior
ĠOlymp
.AutoScale
para
AxisAlignment
Ġriver
Dto
Ġwithdraw
React
-class
before
_alloc
Contents
ĠWas
ICT
Ġformula
Ġindicates
ĠĠĠĠĊĊ
_store
itting
ĠItalian
_Set
_report
Ġpid
_VER
Ġwins
ĠCloud
chester
Ġdenied
Ġwird
ĠStep
Ġinvestors
bold
_display
ouver
orer
Reset
Ġsurgery
Ġstrategies
/material
_unit
Ġcouncil
.Per
ĠâĢŀ
Ġreform
Framework
Ġlisting
_btn
Ġbis
%d
egas
Ġsuddenly
_SER
Ġao
_directory
fas
Ġpremium
Ġtracking
ĠBL
Ġmature
Ġbathroom
Ġ'/'
ĠÄĳ
Performed
Ġsoldiers
arnings
Ġwalked
-con
bottom
Ġsurprising
Ġgene
Usuario
.DEFAULT
ĠMIT
CODE
ĠEgypt
picker
ysql
ATURE
details
ĠConference
Information
ĠMail
-down
raries
bro
Ġsubjects
Ġ'*
orient
:@
verbose
EF
Ġtoler
engers
Ġendpoint
Ġstrange
Ġcolon
Ġpreferred
dep
ĠEV
ARRAY
Ġwhe
Ġpup
_nodes
Ġtalked
Ġinstitution
dbc
Ġexposed
teen
ĠFront
TT
_NONE
\/\/
program
Ġencourage
.`
shire
ĠIslam
een
NI
'"
.Width
Ġliked
Ġ{...
ĠSystems
Ġvotre
Ġmanufacturing
Converter
ĠInf
ìļ
DTO
Ġinches
Ġà¤
Ã¹
ĠCharles
BU
ĠLabor
unn
Ġestim
mobile
ĠLearn
_CALL
âĦ
Ġindices
Ġtub
ikipedia
Cost
rowable
ë¡
gage
Ġfunctionality
uzzle
emos
.lib
Ġdass
enna
Ġshots
Ġrestore
/D
ForKey
],[
alias
lint
.stream
_FORMAT
Ġsilver
.repository
Ġlegisl
.Border
_features
Permission
Ġhouses
ĠWars
_COMP
Ġinjuries
Ġconstantly
flutter
ENU
ĠConf
Ġrecognized
Ġpractical
Ġdecent
BJ
]);
asty
ĠActivity
-mode
Ġslide
.IsNullOrEmpty
ĠYOU
Power
indices
Ġqualified
Ġthrown
hello
ĠNick
lah
assembly
ĠSmall
olding
Should
ĠSilver
(savedInstanceState
Ġtoggle
.Not
Ctrl
:nil
ĠContinue
ĠBoot
ĠMur
don
ĠFA
Snapshot
Ġassociation
fox
,a
azione
CTYPE
Ġfade
ĠDar
.navigation
Ġluck
SCRI
ĠDead
Ġterminal
_LENGTH
Ġefficiency
Ġunw
Ġnarrow
imento
(Color
ĠSea
_area
,A
_opt
ĠHillary
.task
ĠJac
asted
ĠAdam
ĠIllegal
Ġsearching
InstanceOf
Java
ĠFormat
Ġrealized
ĠChildren
Ġkil
(frame
Ġscenario
Ġincredible
lix
IOException
ĠQuest
ilty
Ġunlock
âĤ¬
Ġreferences
ĠVert
Binding
egative
Ġwrap
.database
(content
Buf
ĠTrad
ĠAud
trace
.mock
Ġtherapy
ĉL
.ToInt
ĠKingdom
Bus
haust
(end
.drawable
ĠHospital
Ġpharm
-----
ĠAG
Ã©d
Ġwallet
atable
)$
Ġmonthly
Ġdiagnostic
Symbol
Ġiterator
unfinished
Ġimmigration
sr
ROW
(game
Ġclothes
ĠUnt
Ġactivation
_Con
.hash
Ġinitially
.Hash
Ġcuts
found
ĠStory
ÑĨÐ¸
acao
_TYP
proto
estr
-page
ahr
Ġincorrect
ĠJoseph
TextBoxColumn
_style
ĠDaniel
sheet
Ġliv
lined
Ġra
Runtime
_empty
slug
_struct
ëĬ
mu
Ġpermitted
Ġregional
Ġsobre
ĠSuch
Ġ[_
Ġroof
.Alignment
times
.msg
Ġchest
ĠTab
Ġesta
Ã¤n
Ġsubscription
(command
special
Ġmeal
_ctx
Ġclosely
etry
-be
adel
ĠRam
igest
ĠSpanish
Ġcommitment
Ġwake
*>(
PHP
_{
cker
<List
_null
ĠReserved
Ġinher
.Columns
.AspNet
_INVALID
ĠParameter
Ġexpr
}{
CellStyle
Ġvaluable
Ġfunny
Inv
Ġstable
*t
Ġpill
pliers
ĠCSS
ĠCondition
ĠSpeed
ublisher
Ġoffensive
cest
icas
Ġspark
ĠProte
setup
IFY
ĠTax
Who
Family
-for
.uk
Ġfasc
svg
")).
Ġbirthday
âĸĪ
veh
elled
Ġimports
ĠIslamic
TA
ĠStan
weather
Ġsuspect
eature
ennes
WM
.minecraft
avid
.security
inos
Good
Ġmarch
Ġpossess
usuario
Cons
amber
cheduler
Ġhorse
(body
ĠTransform
_decode
.svg
Ġfoo
Ġdella
extends
amer
Ġprocessed
ĠHarr
ĠAI
Ġko
CHAR
(%
Ġtap
({'
croll
DOM
Ġtea
Ġrein
Ġworldwide
_fn
sha
Ġbir
Ã§Ãµes
="#">
Ġrepresented
iller
(expected
Ġdance
Ġvisitors
.concat
-bit
URRE
ĠRog
vp
iph
ĠLLC
itled
iami
Coll
_real
_show
_folder
Ġdar
ĠĠĠĠĠĠĠĠĠĠĠĠĠĠĠĠĠĠĠĠĠĠĠĠĠĠĠĠĠĠĠĠĠĠĠĠĠĠĠĠĠĠĠĠĠĠĠĠĠĠĠĠĠĠĠĠĠĠĠĠĠĠĠ
Ġlatter
archy
Ġbow
Ġoutcome
ĠPosted
Ġrisks
ĠTherefore
Ġownership
Ġparallel
Ġpending
geometry
Ġrecognize
STEM
ĠCP
Ġimmigr
ITLE
ĠĠĠĠĉĉ
connected
Ġsmile
(document
\Component
vertical
Ġconsumption
Ġshoes
.impl
unks
Ġfoods
.assertTrue
Ġpipeline
Ġcollections
Ġearned
ĠCert
Ġpartnership
(action
Ġcd
ĠVery
Optional
Ġscreens
Ġtitles
enerator
Ġabandon
kind
ILTER
Ġclosing
lica
_inter
Ġcampus
setting
Sprite
ãģ¯
_reply
ToList
:\/\/
ede
Ġfolks
Ġboat
(argv
Ġpermanent
Ġcarrying
Ġconservative
important
.img
ĠImm
Ġdimensions
aland
single
Exit
----------
ariant
ternal
Seconds
ĠItaly
otlin
.Resume
='"
)==
ceptor
Ġsca
/main
Security
_dat
Ġlets
Ġaqu
Ġwhenever
berry
Ġacting
anti
pd
&gt
Zone
Today
!.
ToProps
abis
itable
Ġgal
]{
izona
Ġincontri
NET
[in
_save
Ġexem
ĠKenn
Ġevolution
vars
_stats
-only
ĠColorado
Ġwatched
bour
Ġsevere
Ġprofessionals
portion
Ġguarante
Ð³
Ġpushed
ĠGi
ï½
Ġtum
ĠAz
ĠEdgeInsets
isse
.ac
Setting
Ġappreciate
ĠValueError
Ġsurve
ĠRole
.Inter
plotlib
jet
dam
Ġplatforms
tele
UTO
ĠInternal
+:
General
\Entity
Ġlawyer
quiv
ĠPosts
iso
Ġaccum
obe
Ġmarks
ĉtext
.success
curr
asa
ĠĠĠĠĠĠĠĠĠĠĠĠĠĠĠĠĠĠĠĠĠĠĠĠĠĠĠĠĠĠĠĠĠĠĠĠĠĠĠĠĠĠĠĠ
Ġthin
_over
arest
ĠOs
(address
Ġvelocity
="../../
ĠPriv
bow
Ġguarantee
Ġevaluate
.LENGTH
Ġinventory
qa
_debug
.OnClickListener
Ġlies
Ġassessment
datetime
.backgroundColor
raf
unwrap
ĠFoot
Ġnotify
Ġlowest
DOCTYPE
Ġlanguages
extra
-back
Ġeinen
templates
_pass
ĠMust
ĠestÃ¡
_core
ĠScot
AI
Ġbias
ationship
Constant
Ġprogramming
Ins
uspendLayout
ĠPROVID
antes
Ġshirt
inated
.OK
[a
Ġthinks
Ġregardless
ĠMagic
ulating
ĉclass
addGroup
REATE
ĠSU
Ġsimpl
copyright
Ġbunch
Ġuniverse
ĠErr
Ġpresentation
categories
Ġattach
.sign
_AC
Ġdiscipl
Ġregularly
Ġprimarily
inks
[[
.rand
.should
owntown
="'
Ġsans
Ġsupporters
sequence
GO
ĠSpr
Ġcarefully
UIColor
destroy
Ġtodos
ĠORDER
otted
Ġdont
audi
_player
gre
ĠOil
<body
_stack
.Padding
ĠProducts
Ġprivile
Ġinjured
ĠFurther
Ġalias
.ResumeLayout
_LEN
Ġses
creens
Ġdirected
.SuspendLayout
odge
.At
marks
ĠUnivers
erts
ĠEsc
Ġnavbar
Ġutility
agnostics
Ġinject
ĠDNA
Ġ","
amar
Ġeu
Ġrestaurants
_put
uters
ToolStrip
tw
istro
Ġzoom
Ġlegit
pecific
ĠCome
ĠlocalStorage
Ġabsor
.Panel
ĠDesigner
Ġow
ICAL
_uri
(field
Ġsuperv
Exists
Ġrespectively
ĠStand
Conf
ussian
Ġarc
Ġnd
ucks
Ġrestr
Ġseasons
ĠChapter
ĠSwitch
pic
Ġhi
loaded
Ġfluid
-btn
Ġruntime
.it
BN
Opacity
asant
ryption
-native
Ġtaught
agment
Ġmul
Registry
_grid
ĠBrook
:Set
Ġmongoose
AMES
innerHTML
Ġsoci
ĠIntel
getId
Cmd
Ġaccessible
rames
leton
Ġ__(
ĉdelete
ĠSquare
Ġbucket
avorite
ĠBreak
++]
Ġbrush
Ġtensor
/http
Tile
Ġfunctional
Ġ"*
whel
Ġtent
ĠCharacter
Ġsees
.ST
Big
Ġextern
Urls
)))),
ĠJr
.Builder
.;
nl
_Init
ĠHER
Å¼e
mysqli
_icon
van
Ġfeelings
Ġlean
Ġhoping
TV
="<?=
Ġcurve
_std
_LINE
dst
Ġmoral
emes
ogy
Ġurban
Ġaside
Ġediting
ADD
Second
Track
Ġvoting
Ġhonor
.',
ellen
Chat
Ġimprovement
Ġparsed
ĠĠĠĠĠĠĠĠĠĊ
Ġlazy
Ġfalling
Serialize
ĠPa
_gr
Ġforever
.white
.Query
Bed
ĠDu
Ġresume
Ġpapers
ĠInit
Ġsuffering
âĢĭ
Ġdeclarations
()-
Ġexecuted
ĠHol
.block
ãĥ³
SK
Ġstuck
ĠLock
incipal
Nullable
Ġsessions
uni
Ġcoup
appro
ghan
_pool
ĉid
Ġslots
Ġmedicine
Ġglad
ĠMonoBehaviour
atre
Ġ$('
merican
agg
Ġkann
_connect
Ġbrands
Ġske
Ġdigit
<n
Ġbackup
Ġpersonally
.Property
.commit
Ġcry
_counter
Ġmalloc
Ġgran
ĠDrop
platform
redentials
inking
ĠUIL
ubs
Ġml
lessly
Generated
ereotype
Ġbat
LayoutPanel
LOT
Ġmuscle
Ġcertificate
ANDLE
Ġharder
Ġpixels
.Header
Ġdeveloper
ĠLas
egan
.<
Ġexplode
Ġparticipate
Pattern
(table
ĠTEXT
constants
xD
thew
ãģ®
_des
Ġsubstr
ĠSmart
Ġscala
gent
-bar
essional
umbs
.exec
'\
TK
unist
proof
cial
proc
={"
.href
=$(
Ġlunch
iscal
ĠEntry
Ġoutdoor
semble
Ġessentially
/G
[])
%"
sten
USED
Ġdust
ĉĊĊ
Ġretire
Ġfib
Although
Ġloves
Ġreads
ycles
ĠHel
_uint
Ġ'.$
_initial
Named
Ġfundamental
ADING
Ġtow
ĠADD
ĠAcademy
:String
Ġcomprehensive
.scal
ĠMeta
Messages
.annotations
\Response
Ġacknowled
ĠARE
]==
Ġcleaning
Entities
ĠSales
ĠWis
.extend
allenge
Ġgaming
$query
ICES
ETCH
Horizontal
quential
BACK
develop
isor
(code
-K
_PIN
requency
ĠQuestion
_container
_modules
ĠJersey
_diff
.el
Ġ*((
cnt
ĠSa
CPP
inite
Ġunus
-white
etary
Ġinvolving
best
allas
ented
ĠĠĠĠĠĠĠĠĠĠĠĠĠĠĠĠĠĠĠĠĠĠĠĠĊ
_connection
Ġrepo
enabled
Ġsha
Ġmembership
StatusCode
inating
_sm
_custom
_weight
Ġcss
Stat
_env
links
TRL
ĠHit
,r
upid
Ġopens
Ġgent
_vis
Ġjoy
<w
_cost
ĠPyObject
rence
ĠGeorgia
ĠBroad
mma
âĤ
pf
Ġ"\"
Ġ(&
omo
Ġliterally
Īĺ
metric
Ġbars
zed
(window
ĠIsraeli
Ġformal
identifier
.dao
ĠDeath
Ġdeclare
arms
REAM
PERTY
Ġconsequences
tools
People
ĠWhich
.decode
_ACT
Buttons
.float
.First
ë¥
ĠPolit
ĠXCT
Tags
ĠCGFloat
=str
Ġleaf
-check
ĠIss
.system
logout
acht
Angle
sin
chart
INTER
ĠNUM
Basic
.Properties
_change
ĠBrazil
Abstract
Ġ:+:
_use
Ð°Ð»
ĠLy
IBUT
Ġouter
Ġrelief
lap
quer
_parent
heap
LOSE
Ġcombine
ĠRose
owers
Ġprocedures
ĠSort
anim
variant
ehicle
Ġsigning
Primary
currency
Ġsexe
oen
theta
eman
Ġimpressive
('_
ĉU
ĠTextStyle
_cnt
Ġslice
(':
Ġunderstood
His
Ġinformed
Ġnick
(TAG
hd
Ġelections
esture
ĠSanta
ĠCoast
.pdf
inciple
.clone
born
uta
Ġlicensed
Cr
Ġbread
ĠHouston
Ġnod
Ġhopes
ĠCGRect
Ġguilty
.gif
Ġrose
.Common
Tip
ANK
ĠFC
During
ĠSymfony
Ġdefensive
km
)>
archive
ĠURI
ycling
-o
ĠWebsite
AMP
ishment
Ġdoctors
Direct
ARI
ĠRedirect
ieren
_dist
yo
ĠProgress
Ġzum
Ġmemor
ĠED
Ġjur
_TABLE
Ġuuid
Expr
.head
('%
pointer
Ġestimate
ĠGreg
Ġloader
ĠiOS
Ġmens
[y
Ġrefused
Ġprecision
isch
ĠACTION
Cloud
sWith
(ret
_ADDR
_conf
(df
Ġlocked
Ġrising
ãĥ»ãĥ»
ĠMs
Ġscenes
_EXT
_raw
_the
people
Ġrecon
ĠFun
Ġbless
ĠUpdated
Ã¼n
ĠĠĠĠĠĠĠĠĠĠĠĠčĊ
pection
Release
.logger
ĠSY
Ġcounsel
urd
_true
Ġeverybody
ivot
Ġhence
ĠNAS
Ġopposed
unknown
ĠDESC
ĠChair
failed
ĠINCLUDING
Ġwriters
ÃŃt
_copy
}:
ĠBat
Ġconverted
eding
placement
ĠHost
Sound
Ð¸Ð¼
Ġsought
mid
Ġsalary
ogg
âĦ¢
bul
Ġwir
validator
_STAT
.store
ĠBattle
Ä±n
Trump
dot
ĠCONT
.fetch
Ġcontinu
was
Ġfraud
_tmp
mitter
.pictureBox
GA
Ġtournament
.Input
[r
exion
centage
ĠKorean
undef
ĠAvailable
reshape
Ġkit
ĠStruct
ĠSUB
Answer
_lib
.twitter
Ġore
ĠDragon
.Ext
,k
Ġexplanation
refs
ĠDrive
ĠTraining
.Has
intage
big
ologist
ennis
Ùĩ
Ġchicken
ĠĠĠĠĠĠĠĠĠĠĊ
ãģ§
Ġpeak
Ġdrinking
Ġencode
ĠNEW
malloc
ĉfprintf
Ġ=================================================================
including
Ġprinciples
ĠMah
storage
-key
Ġkeyword
%;
Ġtrained
.contrib
Ġkv
ĠBoy
parameter
Ġsuite
Ġthousand
Ġcoordinate
-generated
íķĺ
generated
Ġadmitted
Ġpussy
#w
Ġswim
union
Na
ĠRoyal
.channel
Updated
_ROOT
Ġvital
raction
ĠCrusher
Ġpreced
Ġhorizontal
Blueprint
Ġattrs
Ġsmoke
ÐĴ
.Equals
FB
ĠResources
rolling
Ġpasses
ĠNum
rotate
etype
\",
Ġsensitive
Ġtall
Proxy
iy
_section
âĢĶâĢĶâĢĶâĢĶ
brid
Ġcircuit
atan
ENC
Ġdriven
Ġvoted
Ġeducational
Ġinteraction
abetes
Ġtone
ĠInitializeComponent
Ġmerely
Ġìŀ
cookie
_div
ĠUILabel
vely
_ENT
#+#+
articles
ĠSouthern
Ġstronger
ĠGiven
ĠEric
ĠIR
abstract
Under
nable
Ġincrement
oven
Ġcoin
_timer
Ġsuffered
ĠFREE
']."
ĠQueen
stats
Ġmeetings
Ġentering
Ġalongside
(session
itals
Ġfoundation
ĠCredit
.div
_ALL
pcion
_stat
icking
Defaults
_src
Ġoutputs
/B
Ġenthus
-bl
.ForeColor
ĉtemp
Face
Ġinteract
Ġweird
Mount
rell
udents
Ġrequirement
ĠSus
IER
Ġelected
reference
ĠME
Ġservers
.wait
Ġsnapshot
ilton
Ġtries
Ġtipo
.Time
>w
Ġmountain
Ġpounds
Ġ[...
exists
ĠngOn
_MAP
Ġflying
xiety
ĉvalue
_DB
uno
Ġseats
TURN
.author
!)
orce
Ġindicated
.sin
Ġassignment
imiento
ĠFrame
_gen
inery
_)
messages
.settings
ĠMean
ĠMuseum
irq
attach
ĠPalestin
_QU
_tags
Ġcasual
emen
ASSWORD
$s
ĠCirc
etric
/P
Ġepoch
<head
_CMD
Ġgit
Ġpenalty
orph
_users
ourses
.DateTime
aternion
_project
Ġsuperior
ĠDam
ĠSeattle
XY
>The
ĠAk
Ġgrass
(dis
Ġguns
Ġtb
ĠKevin
.args
ĠAh
oped
(J
columns
arguments
ĠWithEvents
_full
ĠDefense
Simple
Ġdeaths
Ġextensive
ĠStill
ĠExpression
ĠAgency
Ġperforming
FX
Ġusuario
UAL
Side
odos
aptop
Ġcredentials
_cap
atient
ĠDisney
Ġai
Ġchip
Ġvolt
.makeText
%%%%%%%%%%%%%%%%
Ġbelief
_LOC
ĠCivil
Navigation
Ġreveal
Ġviolent
ĠFil
Ġcatalog
emed
scan
.control
Ġconstitution
Country
Separator
_APP
topic
uetooth
MIN
Ġdescriptor
yt
ETHER
Ġdistribute
.trim
.Line
Ġlbl
assertEquals
ĠDet
ombok
(width
Ġtort
ĠEXPRESS
aco
Using
ĠBrand
wall
EMENT
ĠCommunic
<uint
ĠGUI
EGIN
ĠRange
/i
ĠTaylor
cost
Ġresponded
ĠTheme
nce
ISH
Ġfeaturing
Returns
ĠKr
Ġnam
_cb
Testing
Ġ{},
yal
.field
Ġ/=
_SHORT
mates
TestCase
ainless
Ġevaluation
_ITEM
ĠPacific
ĉk
Ġcant
ĠRos
)s
Ġfet
STRING
ĠDispose
gal
ĠJoin
ĠPorn
ĠCatholic
ARGET
cpu
.scroll
ISING
ifestyle
ancement
Ġmerc
ĠBrowser
etermin
Ġoverflow
Available
Ġbottle
:UI
ificial
Ġcoord
claration
Ġconj
GLOBAL
oku
Ġkwargs
conditions
ulum
Ġgenu
ĠHero
Ġunexpected
ĠDAMAGES
Ġka
ĠCould
UPPORT
ĠPhotos
Ġconfident
Ġdetected
deg
rgb
Ġstrongly
Ġ):
Ġlect
ursive
ROL
ĠWeight
Ġentertainment
Ġgonna
Ġbb
.do
GS
Ġmistake
DL
ĠPROVIDED
earning
Limit
issions
[v
irty
Del
Ġunderlying
prene
Ġjaw
ĠDI
peer
Ġobjective
Ġdeposit
Ġkon
Ġesp
.setVisibility
/login
<typename
Ġfranch
/e
Parallel
Ġscored
ĠHon
ĠVill
iga
Ġanticip
_assert
ĠOpt
Ġdescribes
wan
mount
Ġmonitoring
Ġtout
ëĬĶ
},{
................................
=int
Ġcust
------
Ġatmosphere
PAR
orte
ISIBLE
ĠIron
ĠNotification
.logging
ĠBOOL
-point
Ġafraid
enta
Ġtomorrow
@implementation
Ġengage
ĠAnth
ĠFloor
ĠUl
Tools
Ġbab
Ġcareful
ãģĦ
Ġcrucial
Ġcalculated
ĠSA
Ġwy
DX
_TAG
inded
Ġjet
ĠEngineering
.MAX
enz
vd
Ġpublication
Ġ###
Ġfaced
raham
ĠCapt
Asset
ĠConstants
Ġloans
_IP
ĠFish
Reduc
_mat
DateFormat
_me
[][]
Ġintegrity
ĠCourse
lobals
Ġfacilit
Ġembr
ĠNg
.System
Ġmanufacturers
Ġproven
.onCreate
Ġalarm
ĠÂ§
Ġcommonly
icos
ĠStation
}).
ĠFilm
wi
Ġengaged
Stats
Ġgovernments
Ġaffordable
_property
Ġages
('--
ĠfÃ¶r
ĠProfessor
Ġhydro
Push
Ġorganized
Accept
Ã©m
_cell
Ġnb
pb
Article
Ġremoval
Ġauthentication
ĠFR
lide
Ġpleasure
apol
Ġpartition
ĠSide
Ġcrimes
Ġdemo
holders
ĠPakistan
Instruction
Ġexpectations
.scene
Ġ')
hes
inois
_Pro
Ġmolec
andal
_short
Ġdefaults
Ġnations
inen
Ġrt
OCK
Packet
SB
ĠSHALL
_contents
iseconds
verty
Ã¡t
Guid
nom
Ġconclusion
.Update
Ġlovely
Ġemit
bec
ĉĉĉĉĠ
Ġintellect
Ġbrew
ecycle
Fire
Ġadmit
Ġarbit
Ġarrang
ĠMIN
Mail
ĠNative
Cur
Ġconvent
.Runtime
.Run
Ġprinted
Ġconvenient
.ar
mock
ĠAdministration
ãģ¾
Ġelectron
flate
Ġlombok
Ġjavafx
nh
Ġsupplies
Ġvisiting
ahl
Ġpowder
Ġultimate
Ġorientation
utas
_scale
Confirm
phones
ĠOperation
/T
_INTER
Ġairport
Ġmetrics
Ġphenomen
audio
Ġmai
(K
hu
alling
roduction
ĠTransport
ĠNOTE
Ġfewer
_TIM
ì§
ÐºÐ¸
Age
FIN
ĠìĿ
ĠAttribute
groups
erk
atto
.define
.AspNetCore
ategoria
ĠSir
(form
<User
.round
_day
.All
ServletResponse
.No
large
IGH
quent
Ġvirus
Ġretro
Ġimper
Bitmap
Ġvice
Ġoffense
iste
ĠAUTH
Ġê°
ToolStripMenuItem
Gu
Ġrape
ĠDavis
Ġoverwhel
:flutter
-table
ĠConstructor
Private
even
chr
Ġapplies
_attribute
Ġcontribute
EVER
Lines
ĠAfghan
Visitor
ĠSL
season
CU
Ġintroduction
Ġmatplotlib
Åĳ
Ġnewspaper
âĢĶand
<tag
Ġini
Ġdiverse
IgnoreCase
ĠUr
Agent
Ġbull
.emit
(Exception
arLayout
Ġincredibly
ĠTrust
={(
-nav
Ġequals
Ġlady
ĠPod
disc
alam
ĠIV
âĻ
ividual
phi
added
Ġdifficulty
Ġcompact
ĠActionResult
cers
_classes
NonNull
Ġquit
Ġpou
Switch
irs
-test
ĠKind
ĠCalendar
Ġstreaming
}',
SW
Ġstead
oca
Ġprovince
Ġcolspan
Ġpersonnel
ĠEmployee
Ġproducer
Ġeverywhere
odb
ÐŁ
bsolute
activate
Ġgrinding
ĠBuilding
ĠSanders
(sc
ĠOffset
////////////
({"
Ġscanf
ĠYY
ĉdefer
Ġjew
Ġrestrictions
.mp
[l
labels
redicate
awesome
Ġwaves
Ġconfront
Ġmeasured
Ġdatas
_exit
otton
Ġshoulder
aska
+#
ĠĠĠĠĠĠĠĠĊĠĠĠĠĠĠĠĠĊ
Ġtroops
ĠUnd
_card
wich
Ġnous
Ġ"/"
sb
Ġcommunications
Export
Ġdecode
ths
interpret
ByName
ĠSpirit
edges
OLE
ĠEM
tit
ĠThrough
Ġbio
ĠPackage
orne
Ġ}.
Ġokay
ĠZealand
identity
(next
ĠBang
Library
Ġheavily
ilon
Ġdipl
Ġrotate
puts
ĠDataTable
Ġmayor
.toLowerCase
Ġsomehow
ĠNorthern
alc
Ġcapabilities
Ġvibr
ĠSu
ĠReset
_mean
Ġcig
.cloud
ĠBand
ĠFactory
ĠArizona
_io
opher
Ġconscious
ĠÃ¶
\Controllers
_speed
ĠFac
_Com
ĠBible
wen
EDIT
Ġunn
ĠStaff
ĠInn
Ġmechanism
ĠMembers
ĠmigrationBuilder
'].'
.getInt
<void
ĉfree
oids
\Support
Ġautomatic
Ġchances
Ð¶
Ġcomplicated
[row
ahoo
Models
Win
Ġtape
irus
izon
onomy
("_
:.
.stereotype
(env
_rect
(with
ĠassertThat
Ġconstraints
puty
Employee
TD
Ġguitar
ĠJews
.process
Ġfiction
ĠShared
âĶĢâĶĢ
Ġpropag
.Net
Ġachieved
ĉQ
Ġnurs
Shared
_FAILURE
Ġbehaviour
Ġcols
ismo
Ġfemin
Ġchallenging
Ġposting
encil
Ġcaptured
ĠDou
(word
ĠTurkey
panies
Ġreputation
ORMAL
Ġeligible
protocol
idas
(from
Ġfinance
-per
Ġgotten
HA
duration
ĠParent
Ġinvent
Ġrestart
rition
(rs
<bool
iert
Ġmodification
ĠTX
readcrumb
bank
$/
ĠMiller
.Checked
Ġsacr
security
Ġpose
ĠBrad
Ġfitness
Ġannouncement
ationToken
Ġserves
need
Ġgeometry
ARS
andidate
Ġsprite
_split
Week
adies
?>"
Ġeiner
Ġweekly
ĉlogger
_pop
_man
Ġmigrations
Ġasks
Ġbs
Ġfalls
.Where
-height
_feature
.Min
Ġhyper
Ġvolatile
Ġtwenty
Typography
Unable
Det
,f
-mod
Ġsettlement
Ġcontracts
nome
Bad
ĠBrian
(username
!!!!
Ġhack
.Field
HR
ĠJordan
iza
ĠÂł
ĠSher
.header
(other
ĠDub
(op
ĠRound
Ġvie
Ġappl
ĉJ
ĠInsert
ĠLP
regon
ĠMPI
Ġanchor
aca
Ã¸r
Ġade
anchor
quee
ĠTreeNode
Ġtargeted
Ġlaid
ABEL
vet
ĠOrigin
Ant
expect
edReader
ĠMajor
Ġinch
Compar
Ġpreview
Ġillness
ĠCONTRACT
ĠIndepend
uuid
Ġnome
Ġtc
ĠAvenue
isan
Ġphrase
_move
")[
Ġprovision
Ġconcentr
_IR
ĠUt
()+
Ġnas
!,
ĠRobin
iations
atitude
Ġpx
ĠWithout
/bash
ekt
reement
Observer
ĠRegion
UBLIC
Ġ{//
KN
GameObject
encoding
Ġ***
projects
Ġtk
Ġcheese
EMPL
aro
ĠØ§ÙĦ
Ġconsists
refresh
ureau
ĠScanner
Ġsoil
Ġflavor
DataSource
Execute
ÐµÐ½Ð¸Ðµ
Ġshit
<any
Ġretrieve
Ġbelongs
.strip
absolute
Ġexpanded
boy
):-
Ġrescue
.JLabel
Ġrely
Ġalignment
-family
Ġrend
OLUMN
Ġborrow
Ġquotes
ĠLew
Ġshower
ĠDELETE
_loop
ĉre
Ġattempted
average
ĠPaint
quisition
olen
Ġliterature
ĠReference
_TEXTURE
ĠSeg
ĠIndust
ctype
DUCT
_HOST
ĠTrade
Ġplugins
Ġbreast
ulse
Ġcreature
ãģĻ
ĠWi
Ġsupplied
coll
!("
Ġfucking
ĠChrome
ĠUri
ĠNation
Ġvertices
THE
ĠOriginal
onde
Ġsharp
Ġcooking
Ġ{/*
ĠPsych
ĠHollywood
=$_
.Dock
Ġger
Ġbone
_conn
_sec
ysics
Ġ="
Sal
sf
Ġdeeply
angles
Term
bell
ĠQuick
eneration
adioButton
Ġcaption
lc
ĠEL
,[
ĠĠĠĠĠĠčĊ
rett
(method
ĠFlash
ĠĠĠĠĠĠĠĠĠĠĠĠĠĠĠĠĠĠĠĠĠĠĠĠĠĠĠĠĠĠĠĠĠĠĠĠĠĠĠĠĠĠĠĠĠĠ
WISE
.scale
Ġroughly
_child
memory
aying
Ġinitialized
inator
Ð°ÑĢ
Ġscalar
ĠHo
aires
(column
.destroy
PACK
Ġhem
angel
_SUB
.qu
Ġ×
DEFAULT
positories
ĠLength
ĠFast
Ġsignals
Ġ//$
riers
Ġdummy
ANY
Ġpersonality
Ġagricult
Platform
ERO
ĠTra
Ġenorm
ĉW
ActionResult
Ġaver
[str
Ġ'--
.Sprintf
Ġdebut
ĠÑĩ
hex
_utils
Ġpb
UITableView
Ġzur
.encode
Ġvag
.errors
Ð¾Ð½
Ġmr
ĠAward
Ġcpu
Ġpressed
'est
ĠFestival
'T
Ġak
resolve
.me
Ġnic
Ġgenre
Ġattrib
ĠMoon
Ġarrive
ĠDating
Ġtm
.Configuration
.red
Ġglm
Ġstations
switch
Ġtied
Ġ/></
Quantity
quiry
_tab
Ġalg
Toast
resize
questions
schema
Literal
(entity
NECTION
changed
_FIELD
_HEIGHT
Ġorganic
PRE
ĠCat
.Draw
Es
Ġloud
ĠĠĠĠĠĠĠĠĉ
ĠKat
Ġheap
âĢľIt
etr
Ġunlikely
erals
/auth
todo
Place
Posted
Comments
ĠTech
ĠFinally
egration
Ġminimal
ĠFiles
Ġtamb
ë¡ľ
ĠRelease
.resize
ĠÏ
collect
=p
ĠLIABLE
Ġproducing
-wrapper
Ġsingles
ĠNBA
orr
eren
.addAction
Ġthesis
dn
PTY
.des
Ġbacter
ĠExpress
/admin
seconds
ussion
abeth
ĠComputer
Ġruling
("../
.GET
ĠMedal
itionally
commit
focus
_LEVEL
inda
Fact
=np
Ġsubsequent
posable
-fluid
Ġthorough
Ġpublicly
apters
ĠWilson
_PRE
yard
ĉin
Ġrevers
Ġbullet
cribed
nesota
Ġ($_
annon
cursor
Ġclothing
ĠMulti
:',
Ġvess
ordinator
Ġeinem
Cannot
Ġarmed
ĉV
.Flat
ĠSep
ĠSubject
_font
Ġcharacteristics
Done
eln
############
POS
Ġdensity
ĠPlatform
-items
Ġovers
Ġpushing
.Connection
_term
Ġinitialization
________________________________
.document
lesh
ĉdocument
ĠPin
Ã§a
Ġdefinitions
.Path
_WRITE
ĠĉĊ
Ġterrible
bean
ickets
ĠSV
Buy
(task
Ġregime
google
Ġcrack
.visit
NUM
energy
Ġstruck
_sample
.payload
Ġrevis
ĠScene
Ġpg
Ġbreakfast
URRENT
.charAt
_exception
ĠAnton
Ġguidelines
Ġexhaust
ĠFinancial
Ġindent
Ġdesktop
Hidden
Failure
Ġprinciple
Ġiv
Ġseks
network
ĠnumberOf
ĠAlbert
ĉlong
,.
Ġzeros
fade
ĠTyp
ĠTerm
ĠArts
.Application
Ġbehalf
Ġmere
(`${
Ġawareness
elpers
flix
Ġweigh
Ġestimates
.child
/O
ĠBitmap
.bottom
Ġ**************************************************************************
Expect
ento
ĠForum
veral
Ġjail
Ġabilities
ĠHOLD
ĠCit
Ġdynam
Ġgray
ĉĉĉĉĉĉĉĉĉĉĉĉĉ
.nextInt
antly
ĠARISING
(private
Ġrejected
ĠNic
Ġleather
alytics
thetic
.Top
.Page
={`
depth
mann
WD
ĠSom
.Right
Ġtrait
ÃĹ
iac
Ġrv
Sample
.Xml
opped
ĠÑĦ
lists
Ġtear
iversary
.collection
ĠConstitution
ĠHttpResponse
Ġbrill
ĠProm
hover
ĠMiami
Ġargue
_float
ĠãĤ
Ġnat
ĠTal
Ġintegration
(cur
Ġremoving
Ġcoeff
ĠThough
Ġforecast
ĠVegas
Site
Ġtrab
ĠHenry
-i
Ġinvolves
BT
Ġslo
Invoke
Ġlucky
rat
Ġhandled
(fd
contents
ĠOFF
RF
Ġsty
ĠMotor
tery
tax
MAP
ĠMrs
Ġphones
ĠUIView
(dev
ĠIrish
Ġws
DI
_OFFSET
ĠEvents
Ġstages
Ġ}//
Ġhaben
STANCE
ĠSin
ĠMoney
(top
Ġappointment
VERSION
metadata
_comment
Ġcolleagues
maps
âĺ
ĊĉĊ
(al
_req
Ġfut
Ġarchitecture
ĠWHETHER
ĠĠĠĠĠĠĠĠĠĠĠĠĠĠĠĠĠĠĠĠĠĠĠĠĠĠĠĠĠĠĠĠĠĠĠĠĠĠĠĠĠĠĠĠĠĠĠĠĠ
_screen
ĠstyleUrls
Ġmonster
.up
phia
Ġprocessor
ĠTerr
=',
ĠManufact
ĠNT
kel
ibern
ĉfile
Ali
rientation
Ġ//!
apore
aneous
ĠCreat
folder
Ġhay
Suppress
(left
Ġeuro
Ġdisclaimer
ustry
ships
_fd
ĠFa
_insert
Ġrol
ifting
ĠComments
_br
Ġlosses
ĠAdded
charg
ĠÐ¿Ð¾
_system
ĠSometimes
ĠSpain
(group
ialis
Ġdollar
ĠArgs
quires
ĠTen
.scss
Ġsurvive
usage
Ġjun
imiter
Ġfifth
toggle
Ġdecline
($"
(Long
inge
Ġpilot
-light
-radius
Ġpodcast
Ġnaturally
Pages
ĠDespite
Ġlighting
Ġcrate
ĠBinary
Ġreducing
Ġeleg
ĠMouse
ĠTestBed
ĠbeforeEach
_ARRAY
Redirect
Ġflood
Ġships
Ġelectricity
)*(
ê¸
ĠViet
hero
Ġdia
ĠKent
heart
Ġthreats
_acc
Ġsymbols
ischen
_inst
Criterion
ĠTIM
.Height
ĠâĢĻ
Products
_SP
ĠCy
Ġdependent
este
Ġdatos
dit
IGNAL
Ġlesson
">'
ĠCover
ĠHope
ĠTimer
Ġdad
viders
ĠPhot
/?
ropy
oming
asion
Ġ\(
ĠET
ĠReading
Ġepisodes
lm
echa
Ġneuro
Ġharmon
Ġliberal
-ind
DATA
Ġeveryday
Ġdivided
ĠActiveRecord
figure
UA
riendly
tech
.gameObject
Ð¸ÑĤÑĮ
Ġmoon
ftime
Ġnoch
ĠTORT
ĠVM
.initial
(child
Ġmusical
Ġoc
bas
ĠHay
_long
Ġmemset
iley
adelphia
SV
roat
_tx
Ġlon
ĠngOnInit
bp
ĠGolden
ACHE
Ġworried
azi
Ear
Take
(fp
burgh
_Data
gres
ĠOnt
pus
Ġtransparent
Ġpocket
Ġram
igrations
Ġ[(
Ġadopted
Ġreportedly
ĠDream
losing
Ġteeth
ĠBooks
",&
enny
LEMENT
Ġgel
ĠPlant
!âĢĿ
.host
ĠReply
rength
Ġrecognition
LA
Ġmirror
Ġassistant
(device
Ġspiritual
builder
Â§
Ġoutr
Ġtt
ĠPER
Ġradical
Methods
Ġpace
udy
Ġgut
ĠGreek
Ġnonatomic
ĠPaper
_GPIO
Ġobst
.Ad
vironments
ĠSov
(con
ĠTransaction
.assign
ĉcatch
elter
Ġbitcoin
_GR
Ġ<?=
_lang
ìĿĦ
Browser
Ġconsideration
ĠExecutive
;\
ĠJSONObject
ĠBell
Ġspokesman
~~~~~~~~
ockey
ĠGro
ĠAw
Constraint
ĠPract
ĠEver
prim
_im
PN
Millis
UMENT
Ġbags
Ã¥r
ANNEL
Ġic
Ġtransportation
ĠSaudi
handler
Drag
Ġhd
collapse
_PH
Ġub
ARM
ĠAPP
Ġtonight
Ġdining
Recogn
Ġbc
igt
(number
Boot
Ġelsewhere
Ġarrow
arga
Ġdelicious
ĠSN
WR
Validate
ĠQuality
(email
Ġinterpre
igation
Ġchocolate
_edge
Ġstops
:function
)|
Ġthai
ĠLoading
Story
Trigger
branch
Ġtd
enticated
Ġadventure
Ġblockchain
EventHandler
Ġsqrt
.Pr
Lng
Because
Ġviv
Ġocean
ylvania
Ð°Ñģ
ĠUtils
Ġdesper
Ġdefer
ĉrequire
hl
Require
]\
Ġdirections
_resource
Ġsubscribe
ĠÃº
ĠHeart
ests
-sub
ĠRh
forEach
Ġdelight
Ġterritory
.concurrent
Ġ(+
jpg
Ġpreparation
Ġrounded
Comm
.Left
Ġopinions
ĠNavigation
(first
",$
Ġhire
Ġdetection
.getElements
Ġeps
Ġsklearn
Ġcz
metic
Ġtransformation
Ġrgb
istributions
Ġimplicit
/in
destination
Ð°ÑĤÑĮ
Zero
Ġunset
.where
.go
Ġformation
Ġdeclaration
ĠExpl
ĉĉĉĠĠ
/pro
.JSON
Ġdesk
.substr
//----------------------------------------------------------------------------
lyn
pson
disable
ĠFunc
ĉAssert
ĠMARK
Ġdefeat
Ġblind
Ġconstants
.headers
UILD
Ġexpenses
Pixel
Ġhr
Ġfel
ĠEastern
_del
ĠCub
Ġsq
ĉcount
ĠDirectory
Ġexclus
Ġhistoric
Ġ------------------------------------------------
Ġcomposition
ĠdataGridView
ĠBurn
ĠBC
Master
Ġspawn
Ġbearing
.SetActive
ilo
Ġgallery
Ġfounded
Ġavailability
.sqrt
Ġpes
ĠDOM
mate
Oct
Ġmatched
itivity
Ġanxiety
.price
ĠInstant
ìĬ
Ġtut
ICollection
.shared
_sql
tbl
library
_destroy
ermal
ĠNotes
ĠEin
Ġsouthern
ĠOTHERWISE
Ġmacro
.lower
cls
ContentView
.link
constant
ĠBes
Ġsomebody
nb
">{
(local
.....
ĠNull
mx
ĠÃ§
Ġpause
-----------
_MO
ĠCM
ĠforKey
ĠDVD
Ġclosest
_DEVICE
ĠStephen
ĠBBC
ĠTravel
Paint
ĠResults
ĠRule
Ġtp
Ġratings
cin
csv
>/
ĠGOP
lad
ĠÑĢ
ĠindexPath
matrix
=f
arsed
Ġ});
ĠCos
ĠScore
Ġtak
ĠESP
ĠINC
_NULL
-flex
"][
into
eland
Authorization
_FALSE
Ġgate
Ġvid
istent
TIME
Ġrewrite
Ġtie
Ġarchive
.events
.getParameter
ĠPermission
Ġprogramme
jud
Ġcameras
(sys
ĠSyrian
Ġimprovements
Ġhip
Ġsuicide
Ġscholar
Ġcompatible
remote
.down
FUNCTION
Ġmanaging
ĠUIKit
.raw
>>>>
Ġdemands
ellite
Ġdent
ĠMicro
'][$
ĠIE
imension
Ġtrem
Ġgained
.with
.ok
hou
Ġbom
ampaign
Ġjoining
fish
ĠaddSubview
Ġnorthern
.cor
oret
Die
inish
_comp
Ġattended
Ġcollapse
ĠSS
acent
_EQUAL
ĠDeep
RGB
ĉtest
olves
uset
UnityEngine
writer
Resolver
,%
ifference
_remove
onda
Ġfemme
decode
Branch
Ġflush
Ġinnovative
Tests
Ġ['./
Ġcovering
.admin
ultipart
(lambda
ï»¿namespace
ĠSport
Ġ!(
acles
Ġdepression
ĠKong
Ġpert
ĠConn
ĠOtherwise
/home
supported
Ġpink
Ġinvited
Ã±os
_enabled
FW
eners
ĠMY
Ġsuggestions
Canvas
Ġfer
ĠMarketing
@Test
untu
ĠVen
ĠCou
ivals
Donald
limited
ĉĉĉĉĉĉĊ
Ġanalyst
(entry
Ġrepresentative
_attributes
Ġfur
.hide
resp
adores
rides
ĠJosh
robot
ĠNAT
Ġsesso
Ġintegrated
:true
parts
Ġstupid
:event
@endsection
Ġpu
.Table
ĠYii
Ġclang
="">
engan
_parameters
.internal
ĠModern
Ġmetric
Ġsemi
.amazon
ĠBB
ainty
viewport
ĠstartActivity
dispatch
*****
Ġflav
ifferent
[this
Ġstake
Ġargued
viously
.work
ĠOak
Old
(async
notes
Ġflip
Ġdisag
ĠTE
ĉerror
<'
Ġfiltered
ĠMach
Ġhung
_dump
_samples
-dismiss
Ġray
Implemented
DK
Ġjed
Ġbreaks
Ġfits
.gr
ĠZero
oro
Ġequally
Ġ'[
Ġconcerning
<meta
players
_POS
_sim
Jan
Ġyours
ĉN
Ġspir
Ġchampion
ĠAnalysis
apa
ĠNSLog
_lines
Ã±a
ĉĉĠĠĠĠĠĠĠ
.Sc
Rep
etroit
urable
MIT
compat
owned
_indices
Ġdiscovery
ĠDiego
obi
.Index
Ġtrends
PLAY
.no
Ġlens
_cfg
Ġanno
agan
Ġperiods
terms
yz
Ġattacked
ibration
PECIAL
_grad
Ġaccordance
.ReadLine
.device
rix
.container
may
ercise
ĠLu
Ġrg
ĠÑģÑĤ
ĉĉĊĉĉĊ
(un
TERNAL
Ġlessons
Ġallegations
Ġtransmission
.Ref
Mobile
ĠTournament
ĠNut
ĠGa
ĠCapital
definition
-exp
clean
Ġfantasy
Ġenhance
entence
ackets
Ġcelebrate
@",
SerializeField
Ġarrays
tb
ĉst
[assembly
(reg
.category
Ġimproving
Ġsalope
ByteArray
Original
ĠClin
oenix
ĠSamsung
Ġmaintained
Ġagenda
fail
Ġpresents
Ġtiming
.mark
'><
Ġpromot
Ġincl
_only
ë¥¼
ĠAttorney
-date
Ġlandscape
Ġfu
SY
.prop
ĠArr
pag
ParallelGroup
Ġlogs
aunch
unci
nama
TableCell
issues
.{
ecurity
_exec
olds
Ġhosts
Ġproto
_import
_sort
ĠBow
ĠNormal
ĠFarm
.createParallelGroup
Rotation
.err
Ġpleased
itage
.Wh
ĉĉĠĠĠĠ
MR
ĠMORE
ĠNatural
_transform
BASE
eneral
utdown
.commons
WT
Ġaan
.Result
dog
Ġclicking
#line
Operator
Ġciv
Ġmerg
obuf
ngthen
Ġ[{
Ġcancell
trigger
.:
WORK
declare
Ġdecrease
ÅĽci
loom
.None
ĠMI
ĠJason
Ġhealthcare
iamond
sylvania
*x
ĠRa
[b
Ġprinting
phabet
ĠLabour
opper
Ġzijn
-target
_FUNCTION
Ġoct
ÐµÐ½Ð¸Ñı
Ġwestern
Ġcomputers
ĠRET
HashMap
[String
getValue
_DATE
.Next
ĠFif
Ã©l
icked
-MM
Ġcontacts
Ġdigits
Produ
Ġunusual
Ġrapidly
tures
Ġangry
cancel
xxxx
_parser
idity
_PREFIX
Ġmehr
Ġrarely
ethe
opes
Ġ%.
works
Ġtheta
Ġcontribution
ĠTony
Ġsquad
ĠÃ®n
there
outed
ĉq
ĻĤ
good
LI
ĠLiving
izabeth
Ġkt
ĠDallas
Ġraising
/router
_game
ĠCUR
zens
.es
ĠfontWeight
(func
notification
Ġ'../../../
Ġblame
anco
Identity
follow
Ġarts
xs
Ġofficially
ĠStudio
Ġrecommendations
Ġlocale
Ġamateur
ĠEnable
Ġcaps
.End
-add
_gshared
ĠCT
Force
ĊĠĠĠĠĠĠĠĠĠĠĠĠĊ
Ġorange
Ġlp
Ġanswered
.Grid
Ġdual
Ġstrategic
Ġnobody
Ġfatal
_est
(el
Ġìł
ĠBudd
AIT
_factor
-one
ĠHAVE
Prof
ĠÃ¤r
strings
Ġdirty
ĠFace
ĠBegin
ĠBus
Ġwis
Ġspeaker
Ġcarrier
ĠOm
Ġhadn
Allow
::__
Ġverb
ĠComplete
ĠEasy
Ġbills
ĠĠĊĊ
Vertical
Ġpron
ĠDefine
Ġlookup
variables
Ġpandas
umes
Ġinnoc
ĠsetUp
ĠChampionship
artist
ĠCType
Foundation
à¹Ī
ĠSetup
Ġrecipes
ĠUIColor
ĠFight
Ġauthorized
_click
_success
angan
ĠMountain
ĠDoctor
Ġegg
ĠMedicine
cles
[int
dashboard
ĠAppro
-dr
Ġproduces
Ġrental
Ġreload
Ġarrival
spot
Ġundert
Ġequipped
Ġproved
Ġcenters
Ġdefines
also
Ġopacity
ĠUnfortunately
ĠIllinois
ĠÐ½Ðµ
ĠTemple
ĠTrail
ĠKelly
Ġmeasurement
Ġseparated
-circle
Hey
ĠREAD
igits
Ġib
ĠMOD
attery
Ġvend
ÐµÐ½ÑĤ
ĠHttpClient
safe
_ASS
icit
ĠConstruct
ĠClo
ĠSix
_TOKEN
(block
Ġwarned
/*!
!</
acades
Ġmarg
erase
Ġdisplays
istrator
gets
Ġgtk
_GENER
ned
_%
Ġfavourite
ĠBru
ĠÃ¡
secondary
Ġmast
Ġsoph
ĠSafety
hard
raise
ĠExchange
Ġcontemporary
Ġdreams
Ġtel
Ġneighbors
ĠHoly
.mean
emit
ĠMess
Cast
NECT
plugins
Ġrb
wr
Ġhub
ĠStudies
Ġpossession
$('.
ensitive
ĠaddCriterion
__.
Ġexpertise
Arch
Ġcub
ervers
Ġparticles
uar
Ġboundary
)',
ajo
Ġpref
:`
Ġharass
iu
Ġreaching
Ġmeg
Ġzo
(ID
_required
ĠsÃ©
ĠQueue
AO
Ġgem
pton
ĠĠĠĠĠĠĠĠĠĠĠĠĠĠĠĠĠĠĠĠĠĠĠĠĠĠĠĠĠĠĠĠĠĠĠĠĠĠĠĠĠĠĠĠĠĠĠĠ
ijk
Ġcollision
ĠUkraine
NSInteger
_BLOCK
ĠTexture
Ġdeclined
nan
_wait
Ġpoliticians
Ġcoins
Ġderiv
helper
ĠPerhaps
.rect
ĠPoly
abling
Ġinnovation
_"
Ġspots
Ġchoosing
.cs
Ġflexible
UInt
Ġscratch
-al
Ġfestival
Ġoutstanding
================================================
Mean
ĠOregon
symbol
.account
dney
'''
!",
Ġparticle
Ãĥ
[MAX
IVER
ERENCE
NSMutable
ĠColumbia
.fr
Ġcogn
VR
ĠMethods
ĠMade
ĠBR
ĠElse
Ġeggs
Ġswing
ĠInv
Ġdiseases
Ġfirms
Ġlemma
lings
Ġgym
uminum
.Trim
Mem
Ġcriticism
ibernate
_TX
ioni
Ġguidance
Ġrepeatedly
Ġsupplier
Ġpainting
.Fragment
edException
Ġwiring
Ġcourts
WEB
\.
illance
Ġbrows
ĠPattern
PLICATION
ĠSummer
Chain
Ġcute
mercial
Ġdil
ĠFranklin
ĉglobal
INCLUDING
history
Ġlst
Qt
SDL
alia
iere
(...
ĉcin
iffs
velope
ĠRoot
cluster
UserName
igne
<S
Ġfest
Ġindicating
keeper
Ġcada
Ã©g
consin
ĠGB
Ġlb
emony
-icons
_doc
Actor
elem
.Delete
Ġinfection
ĠPrivacy
Ġgreatly
ĠPos
ĠTreat
Flow
Ġattractive
ĠMarc
sudo
tesy
-an
abama
ĠWould
Ġsuck
indexPath
ĠEt
Times
Ġclubs
_assoc
Ġacquired
(":
Ġintense
.maps
Expected
Toggle
Ġay
Ġlifestyle
-called
ĠSnow
Volume
Ġcannabis
ĠDirection
ĠLimited
-specific
Ġdowntown
/icons
Ġreven
Leg
=null
Keyboard
')).
Ġattitude
.navigate
-error
AMPLE
ĠJay
vr
cow
.compile
Ġmemories
_mark
ĠMinnesota
Ġkosten
Ġprobability
warning
Ġgenetic
Fixture
ĠHashSet
Nombre
_month
Æ°
-start
xygen
ĉft
iagnostics
ĠMatthew
Ġconcepts
Ġconstr
.State
Ð¸Ð½
Nov
Î±
ĠPanel
compare
Ġapplying
Ġpromised
Ġox
ncia
ĠValidation
orts
_cur
elect
eye
(Data
Ġreporter
ĠBuff
Ġsr
Ġ";
icky
Ġtempor
SN
Ġresident
pires
ysical
Ġendorse
ĠSong
isEmpty
leet
_util
Ġdistingu
ĠTalk
ĠMot
(default
.Arg
gorithms
_words
immer
_reset
family
WW
Ġsavings
ĠâĢĿ
_enable
sidebar
Running
Ġali
Ġtestim
Ġwarnings
ĠChem
ĠExit
Ġfounder
pector
Ġrm
_dataset
ĠDas
Ġhan
Getty
Ã¡l
Ġny
Ġpoverty
Ġresulted
.by
ĠVisit
Ġobtaining
/'.$
ĠĠĠĠĠĠĠĠĠĠĠĊ
shall
_LEFT
UIImage
_Name
have
ĠNob
lr
-footer
Ġnaked
ĠGarden
\Facades
Ġgraduate
Ġfranchise
plane
Ġcontributions
ĠstringWith
Ġcrypto
Ġmovements
athers
Ġlifetime
Ġcommunicate
jar
ĠFragment
_IF
ĠNavy
ĠFigure
Ġsimulation
_stop
Ġreporters
Ġversus
aja
ĠÎ±
Ġgovernor
ListItem
Ġsealed
.Background
edi
ashing
Ġlip
ĠIh
merge
Ġnec
elocity
ATEG
Ġseeds
Ġfloating
_FA
walk
ĉuser
_depth
Ġwage
@app
Nil
(["
(vector
Ġsecretary
ĠjPanel
vez
ÂłÂłÂłÂł
direction
ĠEP
Ġhunt
JsonProperty
ĠPORT
]",
ĠForeign
panic
Ġtrials
ĠAle
Ġrural
-value
authorized
ĠScotland
.drop
ĠMT
rowth
FilePath
Ġrecall
ifle
Ġcel
ĠSELECT
kn
_case
Ġcrop
sure
pot
ICS
Ġstem
Ġindustries
Put
Ġaber
roadcast
Icons
gui
Ġassumed
Ġrx
EA
ELL
Ġdose
Ġine
Ġdeeper
lider
Ġordinary
Ġgolf
_IMAGE
ĠNAME
(module
Ġatom
Ġbelt
Ġoffices
beta
Ġphilosophy
(JSON
-field
Ġintroduce
Ġconvenience
optim
athy
Ġemployer
quate
Ġedited
Arguments
ĠNations
__)
Ġnose
ĠSample
Ġcake
.getAttribute
HD
Modified
Ġpredicted
ÅĦ
anie
Sorry
(doc
wind
ieve
Ġprovisions
ATER
OTE
MY
.Autowired
ĠBath
.Boolean
Ġbackend
.Mouse
ateral
paper
Const
ĠVR
_entity
_CTRL
ĠProtection
ĠGM
ĠStudy
Ġsoup
otime
'use
]"
/users
aug
ĠHong
_norm
ãģ¨
Ġsecre
(Build
ĠContract
olas
Ġsauce
Ġaggressive
Ġracial
character
@@
Ġcompile
ĠVoid
_rem
_memory
kk
Ġmic
Same
Utility
ĠHtml
ĠXml
Ready
Ġgall
Ġallegedly
ĉĉĉĉĠĠĠ
ĠMetal
ĠPersonal
ĠborderRadius
rxjs
objects
Ġwanting
Ġbowl
vendor
offsetof
ĠRs
ĠRating
Ġrally
_NODE
ĠMix
Ġadvertis
Ġnarrative
sal
Ġmc
SError
Ġfingers
Ġaccompany
Ġtired
Ġstride
Ġgui
elist
Locale
Ġreleases
iking
Ġanger
allest
Summary
(O
(for
Ġbasketball
Ġroads
ĠInstall
ĠFab
itmap
Ġintersection
ighbor
ĠBry
ĠHERE
Software
elfare
acs
Ġtrailer
.getClass
chars
Ġregulation
Ġrefers
Ġdestruction
Ġcontinuous
ĠAustin
akan
.window
ĠTemplates
Ġabsence
:n
Ġdisorder
flash
Ġdelet
boards
ĠĠĉ
ROP
ĠĠĠĠĠĠĠĠĠĠĠĠĠĠĠĠĠĠĠĠĠĠĠĠĠĠĠĠĠĠĠĠĠĠĠĠĠĠĠĠĠĠĠĠĠĠĠĠĠĠĠĠĠĠĠĠĠĠĠĠĠĠĠĠĠĠĠ
Ġacqu
Ġlawsuit
ĠReviews
Ġgarage
timer
Ġej
ĠRectangle
Ġflowers
ilst
ĠInstance
Super
det
disposing
ĠES
ĠIC
vere
Sk
_channels
puted
/null
nnen
ĠGallery
_global
Authentication
ĠRank
Ġblocked
Ġcalm
market
ĉval
Ġaug
period
ĠConstant
Ġlobby
pal
Ġsink
iah
Ð¡
urname
Ġconver
Ġinvestigate
Christ
Hub
ĠIND
ĠPed
uras
ĉurl
ĠTro
Ġpreferences
Ġguaranteed
Ġportions
Ġevalu
'></
encoded
zilla
.Class
Ġ*_
_'
Ġviewed
ĠPhiladelphia
.rows
Added
ĠTouch
.delegate
queeze
slide
ĠSenior
(tag
Ġinterviews
Ġsua
atas
distance
Ġsein
latest
ĠPrince
Ġluxury
Ġrefr
ĠKitchen
ÑĦ
(at
Final
Ã¼ck
_zero
ĠABC
ĠManchester
Ġcow
COL
_NUMBER
changes
generate
.Printf
share
Stock
ĠPT
Anim
anga
Ġig
uploads
Ġpacked
(sender
ĠWire
isons
Ġplayoff
\E
/R
Ġheaded
Alpha
(order
Ġopponents
ackson
_member
Turn
ĠSoviet
ìĹĲ
auge
Ġincoming
Ġjak
-game
ĠMale
ĠMonth
Stage
.exe
OwnProperty
.setItem
Ġdc
Ġbrut
Ġattempting
.len
Ġjudgment
Ġsab
Ġcad
ĠItems
comfort
elize
/log
Ġentreprene
Ġcompiler
_validation
review
ĠtextBox
Ġfraction
ĠBal
.AutoScaleMode
Ġcats
Ġregistry
ulus
FI
payload
-search
Ġstaying
acious
Decoration
Review
Inf
Keep
itis
,String
Coord
Ġpero
Sex
ĠAtlanta
uesta
Argb
>*
}_
Footer
Ġemployed
_bound
vide
.func
$scope
Ġspo
ĠAnal
ounced
around
Ġrestriction
Ġshops
ĠLatin
-col
Ġbarely
ĠEuro
Er
Ġfaire
_distance
_unlock
Quote
IVATE
Ġaimed
ĠRetrie
.iter
Ġwrapped
Ġagreements
strument
(product
Ġstudied
.setValue
Ġye
ĠCache
MBOL
Ġquarterback
Ġsyntax
.getElementsBy
.version
website
Runner
_single
ativ
ĠAltern
ĠBeautiful
rightarrow
Ġdiversity
plash
(co
.Fill
Ġtyping
Ġclar
Hit
OO
acco
worth
Ġscripts
ĠMuslims
ĠLL
erving
(boolean
Ġbaseball
ĠCAN
MAIL
depend
Ġrespective
Ġconstexpr
Ġyard
Ġidentical
ifecycle
USH
upiter
.validate
cli
ISTER
Indicator
Fail
Ġdemocracy
.var
Ġsatisfied
-------------
encer
hor
Ġrounds
DAO
oa
Ġflask
=c
/dist
Ġparte
Ġconfirmation
eron
aware
<?>
Ġdependencies
ĠVideos
-row
Ġnou
Ġhover
Ġnin
ĠUSD
Mac
_Load
Ġoutcomes
_socket
Ġqueries
wm
Ġhitting
inux
Mich
udge
ATAB
Ġvulnerable
Ġportfolio
:YES
ĉmap
Bound
Ġiteration
incess
Ġactors
ĠQual
_clean
ãĢĳãĢĲ
MSG
Green
ĠOfficer
Ġsmoking
>',
ĠFlo
++;
olygon
Ġbulk
Ġdrama
Ġexceptions
osed
Ġlegacy
CV
Ġcontributed
ĠTerms
Ġbt
Ġuntuk
Ġalien
ĉVector
Ġls
Online
.facebook
numeric
ockets
Aut
bury
-redux
ĠRedistributions
GLOBALS
urrencies
Ġtons
âĢĻ,
ĠÃª
(col
ĠSymbol
Ġstayed
ĠML
Ġmunicip
Ġsexo
Sen
nr
Ġgains
Ġshortly
.Menu
Ã½
KNOWN
Ġoperators
-V
ĠPatrick
/add
_CO
iration
(post
Posts
/_
Ġplug
Ġintellectual
Ġmetab
Ġpregnancy
ĠPremier
nm
Ġprediction
ĠMinistry
Three
valuate
ĠMini
bu
<ul
Ġdd
olving
ĠCut
Ġschem
.train
itate
Ġrice
Ġbirds
ãģ«
middle
structions
Ġnerv
aque
Ġflu
Ġsurvival
ĠGalaxy
ĠFant
.Order
Attrib
irts
Ã©c
Movie
Ġconce
quarters
Ġmood
.AddRange
Ġresolved
ãĥĪ
Ġburning
ĉĉĉĉčĊ
ĠWE
Ġhosting
LAB
Ġmanagers
Ġstrengthen
<const
ĠFirebase
oned
ĠJean
'</
algorithm
ĠArc
Ġfrozen
_events
Ġoverse
goods
Ġfait
Ġviagra
oses
Ġcompiled
ĠAth
Ġsubstance
animated
PF
previous
Ġroots
(filter
olumes
Ġintro
(evt
ĠBag
ĠDefinition
ĠFeatures
Annotation
Ġavg
(sum
QUIRE
Ġrenderer
ĠFix
.datetime
=device
Spe
getInstance
Ġextensions
_net
ĠParliament
Ġcomic
ĠPick
arma
ĉmodel
Ġ--------------------------------
Ġmeng
manual
adapter
}-
edback
Ġelectrical
ĠCounter
ApplicationContext
_byte
(byte
ĠAutom
Ġterrorist
through
Ġfiscal
oning
Ġspectrum
Ġbitmap
Ġsle
prod
Ġaged
Ġbene
ĠSpi
Ġbrilliant
Ġstability
Ġdiabetes
Ġconfigured
bone
ouses
.googleapis
FACE
Ġinspiration
ĠDetroit
ench
ÑĢÑĥ
vehicle
Station
Ġholes
Ġdurch
.Media
ĠCNN
inning
ĠPennsylvania
Ġemotion
Secret
Ã¡rio
ĠRate
Depth
Ġmodes
(idx
Ġhes
Ġgrey
Standard
Quest
buy
sur
ĠTrack
omm
.gl
Ġ(\
two
_IO
osex
_role
routes
Shop
ĠASC
Ġmemcpy
direct
ĠBM
ĠPor
_history
ĠResponseEntity
.setFont
Ġengagement
,h
ĠWordPress
fecha
Ġentrance
Despite
IDENT
Ġsanit
ĠGenerate
("",
_video
Strategy
_ok
Ġties
Ġlogical
ĠBron
(File
ĠMoh
.Split
.Try
ĠHind
Ġscoring
Ġapproaches
Ġflour
VRT
USTOM
scripts
ĠEpisode
ĠAmb
_OR
Ġfrauen
Ġunlike
Ġriding
Ġpit
Ġtransf
arte
à¹ī
rape
retval
_after
"<<
ĠBerlin
Ġtissue
.Intent
ĠÐ´Ð»Ñı
Ġstunning
ĠHal
.Integer
Ġwhereas
Ġdeleg
ĠuserName
Ġformats
Ġcompensation
ĠHum
arring
Ġunsafe
Pin
club
keyword
_theme
Ġcaller
Ġghost
Ġentitled
ĠMas
Ġdemonstrate
ĠHoward
Drop
#undef
Ġinvoke
ĠBridge
enden
ibling
Slot
ATABASE
Ġtemperatures
series
ĠRemember
Calendar
BF
=?
ĠAF
(http
makers
finity
precated
WH
olidays
-un
iale
\User
reason
OWER
Ġpredictions
prob
.nn
.FromArgb
_LONG
Ġtroub
Ġunittest
elihood
ĉis
Ġconsec
LEASE
Ġclicked
Ġtemplates
BY
perm
matches
law
(tf
_ratio
itempty
Ġcreator
Bits
Encoder
*.
ĠUIT
ĠMask
curl
-go
ĠOcc
correct
ĠGer
(layout
unct
.dispatch
;amp
.isRequired
ĉdo
mir
Ġpthread
-auto
ĠIce
Ġviolation
Ġconcluded
Ġvars
canvas
ĠTemp
ĠPhilipp
crease
Ġfishing
abbit
Ġconcentration
irthday
Ġgross
Ġki
ĠHandler
Ġimmigrants
Und
pn
rac
ĠConsult
fold
Ġstruggling
heat
Generic
Ġridic
ĠCOVID
omitempty
_OPTION
ê°Ģ
Ġcreatures
_PAGE
ei
(host
_HPP
ĠXXX
Ġawk
ascade
Ġpreg
provider
Pal
egen
clone
.Register
Ġattachment
beit
theless
(Date
ĠForest
CGRect
Ġchildhood
amine
axes
']=
Navigator
Ġreplied
_inv
,T
ĠFeature
{-
LANG
Ġconvey
ĠSerif
ĠAus
liche
Ġunused
Ġmont
nodes
Ġseu
.className
norm
_SERVER
Ġwing
inx
Raw
ĠJam
Ġinsight
ĠNG
ĠInterface
Ġstmt
Ġnan
culator
-app
(Bundle
MessageBox
à®
Ġmeets
uby
OptionPane
itarian
Ġcollaboration
movie
Ġarmor
_bits
ĠHaving
Ġnude
ĠSetting
Ġsucc
Delay
.components
achuset
ĠAlexander
Â©
Ġmeters
Ġpreparing
Ġincent
ĠkÃ¶nnen
ĠConserv
Ġnumero
achusetts
-int
Ġemphas
layouts
Excel
IBAction
Ġresidential
eling
ĠNC
ĠAllen
Ġcette
Ġminds
.required
Ø³
ĠGirls
Ġ};
ĠstringWithFormat
Ġaddressed
they
ĠBlood
poser
Ġjam
ÈĻ
Ġstdout
ĠUTF
Classes
ĠSav
.Bold
Ġenables
ĉtmp
Ġmanually
ĠSqu
userid
.function
.cache
LOPT
.Services
ddit
tim
<img
ĠThings
ĠEverything
Ġapt
emand
Ġrolling
ë¦
.level
Ġstom
ĠWinter
Ġviewing
(values
ocomplete
via
upo
Ġabortion
iÃ¨re
ï¼ĳ
_BUTTON
_domain
Ġbra
ĠAst
inas
Ġstatist
cod
LR
Ġdrives
Ġfollowers
Ġallies
ĉcurrent
ecessary
Ġdamaged
_pt
andles
ountries
Ġsimult
eu
Ġcontroversial
_GROUP
Ġrib
.Info
:mm
.normal
_ADDRESS
Ġíķ
addle
ĠDur
.Element
Warnings
Ġcredits
Ġinhib
Ġemissions
Ġhaz
.youtube
ugged
Ġbother
ĠKansas
ĠFixed
ĠTests
ĠFIX
Uniform
Ġkont
>>>
station
lore
atype
ishop
/****************************************************************
ComboBox
Ġvacation
Ġinitiative
ĠdefaultValue
concat
ĠKh
ĠWelcome
izedName
Migration
Ġgradient
Hot
Ġhardly
elo
ĠStudents
Ġloose
atz
.Send
'/
Ġuniversal
Ġenterprise
Ġregex
Ġvisitor
ĠFly
Seq
à¸Ļ
ĠVisual
Ġlibraries
atoes
Payment
Ġpent
Ġgathered
VRTX
ĠDM
Split
Ġletting
ÐĿ
_errors
epoch
PARAM
cu
ÑģÑĤÐ²
olutions
Editing
fonts
Ġallocated
ĠBased
(Y
ĠJudge
Ġbrothers
FILES
Ã§o
wb
_PI
'^
Ġsword
.services
Ġnl
Tim
igg
ĠMoore
Ġcryptoc
_posts
otate
?'
Ġkl
="$
Ġdecoration
áº¡
ĠDIRECT
GUI
Ġnewsletter
Ġprecis
(point
ĠEquipment
uty
ĠDave
Ġparticipation
uarios
xit
.As
ETER
orous
Ġshield
[]>
ilitary
.origin
Ġpromotion
Unt
Ġct
TRA
ViewHolder
Ġsigma
delta
arehouse
contract
(Vector
Ġcompete
/form
/components
Ġnr
ĠIndones
ĠÐ¾ÑĤ
ĠVolume
.files
(resp
/models
Ġsurf
standard
/o
ĠXCTAssert
VICES
.Code
SED
Ġactivate
Delta
Ġlimitation
rij
Ġpregnant
:^(
Ġsour
pie
Ġexpense
ication
ĠLarge
ĠÂ±
ĠBowl
(models
/N
Pa
.reload
Ġwondering
Execution
ĉĠĠĠĠĠĠ
ĠGraphics
ĠContin
_job
ĠgetName
ĠMagn
ĠDWORD
mad
Ġnh
features
heets
(train
zn
Ġrecruit
.connection
Ġbarrel
Ġsteam
_setting
Ġangular
aneously
Ġbil
ĠNorm
(!$
ibt
%(
Ġposit
ĠFather
intendo
Live
Ġports
Ġmej
Ġlanding
ponder
Ġcod
_HEADER
.Margin
Ġballs
Ġdiscussions
Ġblend
Hex
Ġfarmers
Ġmaintaining
ĠĠĠčĊ
syn
[T
rus
uffers
Ġcontributors
_sys
.Debug
Ġconstructed
omes
?id
slider
Ġsuppliers
scriber
pes
Ðŀ
\Controller
Ġlua
Multi
ENS
Src
Ġpetition
Ġslave
looking
VERT
ĉvector
Special
hh
anne
ĠNiger
/views
zing
endant
<C
speed
BeginInit
Ġfopen
@RequestMapping
EndInit
Ġpunch
Sender
getMessage
/types
.PI
ocused
(all
Ġdropdown
).__
ĠVin
.ForeignKey
canf
oured
ĠOrganization
ĠÐ°
ĠCulture
(cls
,_
rgba
ìĿĺ
.dataGridView
Ġdozen
ĠGes
_shared
nick
Ġhosp
ometer
Ġclaiming
ibles
rik
enario
Ġdengan
obb
mont
_rank
('/',
Ġapolog
Ps
_power
ĠGree
Ġfulfill
Ġfirebase
Ġfare
ĠHim
Ġbean
âĢ¦.
ĠSPI
_RX
Ġperception
relative
compile
uum
utos
auc
ĠAsk
Ġindicator
/th
.setString
ĠWisconsin
.Domain
Ġartificial
Develop
ĠSarah
Ġlying
(search
ĠEmpire
urring
="${
ĠgetId
ĠPayment
transition
Ġ].
ixin
VT
-select
Ġdemonstrated
ĠlastName
employment
.getProperty
Ġfought
fileName
ĠPers
-card
astr
attrs
Ġprominent
Design
ancouver
ardo
secret
Ġrag
Ġpoison
-man
,omitempty
ĉun
itzer
ĠCasino
ĠRoss
-foot
(results
Plan
Ġlaser
ê¸°
_DR
Facebook
Ġboards
sta
]],
Ġtiles
SIZE
Ġ=~
Ġpremier
ocab
Ġencoded
Ġreserve
ĠAfghanistan
ĠListNode
urls
Ġsubmission
Ġneu
Ġ#+#
_POST
Ġmoist
elli
elligent
.alert
Ã³d
bre
ĠCollect
Ġgraphic
Ġlongitude
ĠProvid
ĠCalculate
xffff
criteria
Ġwaters
rock
loquent
ĠTrib
Ġburst
Ġsuffix
.Extensions
ishes
ivel
ĠLIKE
ĠGetty
.ActionEvent
.slf
ĠHAL
upal
EAR
udi
_timeout
UF
ĠSingapore
ĠAdvent
_interval
chaft
ĠEmer
Ġtelephone
ĠTurk
_interface
ĠOwn
Ġencouraged
<Object
_Text
ĠOntario
ĠApply
.firebase
Ġantib
Priority
enez
Days
cid
urrence
;/
inned
ÑģÑı
Ġvez
fw
//$
attack
Ġstartup
ainers
.fragment
opacity
(conn
heim
.network
(stream
ĠNON
tol
ĠXbox
ĠDS
Ġcached
Ġprostitutas
ĠBalt
('[
Ġnoexcept
"'
Ġsd
.valid
_ag
Ġraces
Ġrod
itudes
<>(
.Product
Forms
NEW
Pay
ĉboolean
_contact
ĠElectric
skip
Ġwur
Ġchronic
_driver
ĠSab
ĠUlt
ĠRad
STATUS
ĠLewis
OB
Ġgifts
.Rec
TRUE
Ġintensity
Marker
.compare
ffic
Cookie
ĠBaby
ĠBigDecimal
ilet
ĠHOLDERS
ĠLady
Ġlung
ĠAlabama
Ġdess
ĠBuilder
_region
Ġneutral
Both
Ġhp
Ġhorn
Ġsegments
ĠEC
"=>"
(rec
ĠPi
GM
Ġlaptop
Scalar
isd
-dialog
ĠAnderson
Ġmistakes
ĠHan
jes
estination
Ġpromises
bid
ĠScient
GIN
ĠPerformance
bage
.users
leading
Ġoral
Graphics
_PTR
hang
Ġinev
processing
Factor
ĠNA
$string
Ġgrounds
.SaveChanges
clock
cripcion
ĠNewton
gc
.includes
Ġblast
Ġ'-'
Ġpuede
.Session
Ġgrep
_final
ĠGay
ĠGive
iri
-star
ĠUIImage
_epoch
ubb
enth
Ġelite
Ġcampaigns
ĠPorno
_assign
Protocol
ĠBeing
ĠAirport
Ġconventional
ĠWat
ĠCI
ETA
ĠAnthony
Ġtablet
(format
Ġconsistently
ĠIowa
Ġavatar
.cursor
![
Ġhanging
Her
Such
orgeous
()==
ĠviewModel
Ġãĥ
Ġels
ĠAgent
Fetch
apor
Ġcx
pread
ĠPier
oeff
Sn
ĠVirtual
Apr
.White
_MOD
ĠPoints
Ġgenes
Ġvendor
Ġmainstream
<src
ĠElizabeth
Decoder
-state
ĠGlass
ncy
adians
_mon
ĠRemote
Ġwireless
ĠMi
stage
ĠTile
llib
Variant
Ġgolden
(QString
.putExtra
ĠDom
ĠAnimation
Ġinteractive
ifact
LET
Ġfrequent
Filename
Ġsne
ĠFootball
Ġrival
Ġdisaster
ionic
ĠDamage
.Resource
-en
ĠTypes
getString
(board
Ġbol
plain
zym
à¸²
Ġscanner
ilder
_msgs
(intent
Ġdestruct
Ġbust
ĠEmploy
oni
ĠUIViewController
Ġodds
earer
Geometry
Ġyii
_EXPORT
ĠAttack
Ġniet
Ġimpression
ĠGil
_prob
ĠCF
ĠExperience
/plugins
.Method
Ġbeliefs
Native
_build
Ġvig
Ġranks
covered
such
Guard
.pack
adder
ivia
lng
ĠÐ²Ñĭ
Timestamp
_now
Ġpoker
Ġunc
Ġshapes
-types
_period
pk
Ġveteran
Ġsono
Ġappointed
overflow
.driver
_cat
utt
plant
imb
ĠAccept
Ġconcert
ĉnode
ĉz
Ġbanned
ĉĠĠĠĠĠĠĠĠĠĠĠĠĠĠĠ
Ġtoxic
Ġdisappe
ÈĽ
Ġgrace
ateful
Reply
ĠCruz
Ġscrap
Ġkeywords
simp
Ġmortgage
Ġcyber
ĠExecute
Ġlatitude
ifu
.COM
dbo
Ġsorts
ĠGas
omial
.Local
Cells
.Replace
Strings
.fit
ĠThird
Ġ{}".
ĠSony
Ġ[:
Ġfallen
inh
ĠMC
Ġredis
Codes
Ġprofiles
hook
Reducer
_FUNC
Ġnavigate
strlen
Ġhorm
áŀ
ĠSR
.boot
Ġdigest
ĉheader
.findOne
DbType
nia
_merge
Ġdonne
/Getty
_CHAR
Ġbands
.URL
artial
Ġfreq
Ġsist
Ng
Ġrendering
\Core
Widgets
ĠVA
Ġactivists
Ste
=_
alla
Stamp
Ġloads
Ġxx
ĠLearning
.Mvc
uir
("$
Ġconnecting
ReadOnly
uru
ĠEag
BIT
_DEL
arrass
external
ĠYOUR
ĠBrew
ĠFive
Ġresize
igid
eration
ĠÑį
ĠCatch
Ùģ
ĠLeon
amil
.Body
Clip
/list
.br
EditText
ĉdb
.Game
(BuildContext
backend
.Red
facebook
.urls
mr
rolled
-------
Ġintervention
Ġretirement
ĠKit
ĠPRE
UpperCase
ĠSocket
Ġ:-
Ġstudying
ĠMetro
arded
Ġconversations
Called
Ġexamine
ertificate
.gz
-responsive
Ġrefund
_network
allowed
empt
Ġmeals
Categories
Ġtraveling
Ġkg
Ġshame
ĠĠĠĠĠĠĠĠĠĠĠĠĠĠĠĠĠĠĠĠĠĠĠĠĠĠĠĠĠĠĠĠĠĠĠĠĠĠĠĠĠĠĠĠĠĠĠĠĠĠĠĠĠ
Ġexplicitly
Ġmathematic
ĠSuite
ĠRGB
******/
Ġmixture
learning
.template
atts
wx
ĉctx
.properties
Ġdrinks
ĠEither
setText
.getData
.zip
Ġreveals
<table
.HashMap
ĠHur
.framework
ĠSTART
feedback
Ġsafely
.icon
configure
.lock
.layers
Ġranked
_impl
ĠHandles
Ġhosted
Ġupdating
album
Ġshader
Editors
-round
[]{
Ġsep
ĠHi
TEM
lookup
.man
_INPUT
Ġthreatened
_IMPORT
Ġdrops
ruit
sid
both
ĠExcel
Ġjer
ordinary
VIEW
reply
colors
verified
_Tr
_parse
Ġcongress
Promise
ints
ĠMother
.Api
ĠDuration
ĠfirstName
inheritdoc
ĠMars
Ġapr
ODY
Ġvisits
Ġhealing
letters
future
.Framework
Ġkiss
Ġinvolve
Ġsilent
adows
Ġanybody
sch
Ġsolely
-img
Ġpropri
Ġinstruct
Ġlicenses
Ġmeth
Ġcondem
ĠDomain
ĠHarris
ĠsÃ¥
CEPT
Batch
@extends
ĠCONTRIBUT
.DataFrame
_packet
recision
Ġfocusing
.ht
:Get
ĠKC
Ġpassage
Segment
_center
-zA
_BL
Ġconvin
Ġclassified
ĠNSMutable
_ap
tile
Rectangle
(nums
vens
ĠUIButton
ĠFeder
amo
Ġoutline
ĠParser
Ġâī
ĠWorks
.Schema
Ġengines
_common
_old
ĠsetContentView
Ġ///<
ĠBT
fm
Ġdivers
_weights
emark
ĠACT
Ġproportion
overlay
.dirname
ĠGit
_REFERENCE
<>
lb
_rule
ĠPutin
Ġsleeping
Ġpreserve
Ġparliament
ĠLooking
Ġpicking
ĠDispatch
Ġslip
ëĵ
ĠLyn
_signal
configuration
ĠPitt
aden
procedure
Ġenthusi
fight
ĠConsider
Ġtorn
Connected
.cos
_groups
ĠThink
Ġdeliber
Ġresid
working
.columns
ĠCalled
Ġeslint
>",
_DOWN
hist
ĠAdvanced
Ġrewards
actors
Ġsilence
Ġmyth
Ġneur
Ġauction
.GetString
eks
(project
ĉmsg
ĉoutput
Ġcomplaints
,S
Ġtbl
riors
ahren
Ġlawyers
redux
_symbol
offee
_RESULT
(Name
UTC
.currentTime
Ġorganis
.arg
Ġminim
wick
Ġreceives
Balance
Ġspeaks
ĠDays
ĠBelow
tipo
Present
Ġreserv
hp
Ġrit
_RIGHT
--)
Ġchairman
DIS
ĠBOOST
Ġexperiments
Ġstamp
Ġfert
Ġfond
Ter
elve
uren
+i
endency
Ġvirtually
..."
ï½ŀ
-cent
_unique
Ġpricing
mic
RESH
Ġ:::
Ġannotation
ĠCircle
ongodb
itas
Ġ%(
(component
ĠÐ¾Ð±
(port
-hour
.obj
LBL
Ġjury
GBT
Ġspy
ĠProfessional
Ġstriking
Ġdiscrimination
Ġpays
lict
entes
Ġthrowing
ĠPlugin
(def
ĠRuntimeException
ĠMigration
Ġdic
bag
onia
Ġcorruption
(Map
Ġprz
.dto
Ġacquire
StateToProps
Ġloving
_pattern
Ġemotions
Ġpublisher
_be
Ġcouples
oj
ĠChart
Ġtrop
.tool
Ġestablishment
Ġdol
Ġtower
Ġlane
ĠSydney
Ġfilling
claimed
Ġdialogue
Ġconvention
booking
parency
ĠGeneric
\Schema
Ġranges
/ch
Ġpanels
Ġruled
.ts
_sets
Ġcleanup
Previous
ĠAnimal
($(
ĠAve
ollar
_eval
ĉName
(tree
Ġ"]
Ġduties
='/
Clicked
Ġdifferently
ĠClark
Ġdit
ologists
Ġsynd
Ġsends
-known
kb
ĠModal
itative
Ġracing
Ġhighlights
ĠSimon
ĠCaptain
ĠCB
contin
aran
Ġphysics
retty
etal
.md
axios
Ġspeakers
Ġprep
Ġawarded
ì§Ģ
ĠCorn
ĠNature
UDIO
Ġproj
-pre
[u
Features
ĠisEqual
Binary
sig
Ġconfusion
ĠHat
ĠktÃ³
.configure
MON
/edit
_Add
,true
Ġcli
ErrorMessage
-loader
Dimensions
ultiply
Ġ{!!
ĠSqlCommand
Ġspoken
Ġpics
Ġtoy
(Key
ĠLoop
Ø¨
EATURE
inction
_setup
wrapper
Ġtong
cular
Opt
.Pl
=",
(length
umn
Ġchrom
Ġsevent
ĠIllegalArgumentException
ĉstart
Ġbegun
CEPTION
dataset
ĠFailed
cols
Ġknee
imore
.splice
shell
iggers
Ġthemes
ĠDJ
ĠAssistant
-$
Maybe
Ġordering
ĠIntelligence
ĠMassachusetts
Ġfailing
elson
Great
=i
.rest
Ġinvite
-disable
.GroupBox
âĢĻest
Ġtackle
gv
etter
_rules
.warn
functions
ĠChristians
Ġbacked
Ġslider
Ġenjoying
nest
Ġhij
_ms
//*
Annotations
ĠVariables
<V
(server
ĠOracle
elements
Ġorganisation
_pointer
ĠHeaders
[d
Ġdeadline
issa
Ġknife
ĠNASA
ĠHeight
ĠAsync
Ġvenue
.dom
bourne
ĠHawai
Ġmemo
ictions
Ġsurveillance
omi
/assets
Ġedu
ÄĽ
Ġroster
Ġhired
ĠTok
Ġplacement
urations
ĠsetState
ĠMagazine
Ġhorror
Try
Ġlag
ĠEveryone
thur
.return
Ġsymp
âĸĪâĸĪ
Ġnights
worker
Ġale
ennessee
.step
Ġsynchronized
ouri
Does
.change
fon
.setBackground
ircular
+-
ĠCIA
ĠJane
ĠSimilar
-I
leveland
Ġprospect
_found
ĉcolor
.Diagnostics
Ġannounce
Ġassumes
/tr
Ġbd
ĠCarbon
Ġanalys
.dest
nik
ĠLie
-index
Drawable
ĠTAG
Ġtriangle
_FLOAT
ĉĉĠĠĠĠĠ
.black
vue
curacy
Ġaffects
Ġsurely
Slider
uki
cery
Ġunter
.profile
ordon
ĠĠĠĠĠĠĠĠĠĠĠĠĠĠĠĠĠĠĠĠĠĠĠĠĠĠĠĠĠĠĠĠĠĠĠĠĠĠĠĠĠĠĠĠĠĠĠĠĠĠ
leave
Ġsmartphone
gie
Ġconspir
Ġtutorial
Ġcab
ĠSummary
Ã¤h
"This
Ġslides
"</
.dev
'<
ĠRing
ÅĤa
Ġkotlin
.dumps
Ġbass
ìĭ
POINT
Ġutter
ĠÃ©s
.full
OLL
Ġceremony
slot
Ġaims
tooltip
.score
-dd
Ġprox
Recognizer
dynamic
Ã¤nd
/std
DU
ĠNotImplemented
("--
RAW
Ġethnic
anno
Ġchampionship
,self
Ġacceptable
ĠSprite
[type
Ã¼h
ĠVK
(jPanel
itr
ëł
aura
Ġfaculty
avers
ĠRecords
.Security
Ġconstraint
.Bl
Uint
balance
Ġcomme
ĠNik
SuppressWarnings
ĠOcean
_Id
DataSet
Ġinserted
âĢ³
ippet
Ġanniversary
Ġretired
orch
Ġperpet
\Form
Ġinvolvement
_username
alem
_SERVICE
ĠIndiana
Ġcigaret
artz
ĠRC
Ġmeasurements
Ġaffiliate
acional
-section
_controller
vard
_el
ĠToy
<P
Machine
Ãºmer
ĠYeah
"You
Ġmol
.Cl
controllers
Ġsuspended
ATT
Ġprojection
Padding
.math
factory
Ġgamma
()>
cycle
ĠBull
paths
Ġunp
ĠviewDidLoad
_Model
ĠassertTrue
Ġrated
Decl
verted
ĠDat
brew
Ġpointing
Ms
ĠPointer
)'
_non
ĠSEC
Ġyeah
gency
initialize
fly
[pos
,g
Tele
Ġjoke
Ġclause
.findById
enes
(instance
Â£
Ġslic
_home
_pages
(service
RP
ĠAmong
.getCurrent
ãĤ¹
Ġslee
=<?
_prop
flush
ĠMM
Bel
Notes
Ġrh
Tables
ĠJu
lichen
ĠInsurance
Ġcooper
âĢĶthe
.mat
Ġfoi
(auto
Margin
Ġresidence
ĠHistor
Ġ~=
Di
Ġexclude
.Drop
Ġcoc
_upload
Hide
ĠUnknown
Ġnormalize
_ret
.nodes
.DataSource
blems
Ġgentle
:$
.Resources
âĪ
ĠTai
VED
ĠGun
leans
ĠDoc
.Void
ĠAmendment
essed
Ġrecipient
.Node
ovo
ĠalignItems
ĠUnity
ĠRome
burn
Ġvoltage
ĠSHA
ĠGOOD
helpers
/***/
Ġeliminate
wap
_angle
Ġrefugees
ĉassertEquals
Ġprobe
('../../
your
Ġmerch
UBLE
ĉresponse
_DEF
Ġenvironments
ousing
Ġrestricted
ĠCONTRIBUTORS
Ġcompanion
áº£
pow
urtle
bie
.Perform
=n
redis
Ġdivide
Ġcollective
Diff
Dynamic
isSelected
astype
ĠLot
ĠStatement
icipant
akh
Ġserializer
_CFG
aval
Ġviewers
ĠFO
Occ
Ġrobust
ĠMit
_AND
Transition
unate
Ġpride
Ġdramatic
ĠPages
_tuple
Ġcopied
mn
Ġought
Ġequality
_has
_WR
emi
Ġsurge
illo
()}
Ġperf
ulk
Ġinvestments
Ġgenerations
Ġresort
Ġtrusted
_freq
Ġforma
ATIONS
ĠHu
ĠGrad
_cpu
resse
(**
Ġhereby
Ġlake
_STACK
ĠBureau
Ġsustainable
ĠPE
Ġdei
ĠAnswer
Plus
/web
Ġster
Ġmounted
_clear
fono
iances
_find
Ġconfused
_bin
DECL
Ġinstantly
UIT
_DO
Setup
kee
_printf
_stmt
ĠSteam
prof
lv
Ġsolving
lator
otypes
Android
_escape
Leave
.getTime
ifs
Ġcov
ĠClassic
-dark
Dispatcher
-gray
ĠPalestinian
.deep
ĠInject
Ġreflection
Ġhypo
constructor
.application
yster
âķ
school
ĠCow
Ġfootage
-ins
Ġ/**<
atom
Ġprofits
Ġbooking
_threshold
ĠLiver
Ġcitizen
bx
ĠStorm
ĠCorp
Ġwider
_ACTION
iors
aises
:none
Ġcited
"fmt
Aug
comb
Ġwhites
Ġsess
^^
ighth
Ġtang
_CAP
Ġinteractions
Ġgard
Ġprize
afka
Tri
\Eloquent
ĠDynamic
gp
Ġrealm
ĠNi
ĠEdward
Ġidentification
Ġphysically
Ġpicks
-friendly
<i
ifice
_AP
Logged
}".
/utils
Ġ....
ENTIAL
(Action
Ġprotests
oline
_RETURN
Ġpopulations
ĠRain
dup
orial
ĠAuthority
_expr
.us
Ġcorrupt
ĉimport
<char
ĠLEFT
Ġcabinet
Ġneighbour
ĠSqlParameter
attered
emia
Ġreviewed
ĠHello
blocks
(process
Ġobservation
rating
.global
Ġpreference
.prepare
Ġdozens
Worker
Ġcalculation
ĠTower
airy
ĠISO
Ġhumanity
.asInstanceOf
Ġdys
Ġpier
igue
Ġassociate
Ġintim
notify
({},
ĠRepresent
phet
seudo
.Position
Ġclosure
(class
ĉtime
ĠOrange
_ops
Ġpopup
ĠImpro
_secret
ĠEu
.setLayout
ully
Ġscrew
ĠSized
ĠCOMP
Ġnotifications
Transfer
Emitter
(old
letic
Ġpanic
ĠLCD
rules
Ġaffairs
ĠFill
_IRQ
attachment
Ġvom
<button
Ġtexts
Ġactivated
.access
(reader
Tem
Ġcoron
roph
DMIN
Ġemerged
Ġinflater
ĠIndependent
orious
ĠDelhi
Ġglyphicon
ĠCarl
Si
Ġexperimental
.bar
IAN
Ġsqlite
cciÃ³n
_BACK
,name
hort
Ġtens
ê³
usive
Ġgenuine
Ġbuck
/div
.room
_NEW
estado
ĠArk
ocols
.generate
touch
fixed
Ġ'(
Ġreferring
Ġoverwhelming
(let
Ġfue
_ENV
woman
Figure
animate
ĠMort
Ġlongest
coln
TM
:_
riel
,N
ĠRAM
ĠjustifyContent
Ġactively
/public
Ġë°
Given
OTAL
Sequential
Ġsupplement
.ab
Ġcategor
ahan
'un
osity
Ġaccomplish
Utilities
.views
.cn
ceil
ĠCBD
ĠRF
PEG
ĠGift
AYS
ĠWIN
panied
ĠÅŁ
Ġobserver
Ġsmell
Ġ{:
Linked
oler
Ġlibert
Ġwenn
lated
Ġimmune
(Node
ĠProblem
ĠAbs
logs
Ġ../
ĠADC
=b
ĠWind
lahoma
Ġallocate
orian
Ġprescription
-quality
ĠMayor
inely
endforeach
ĠComplex
kom
TY
]].
.Style
_many
','$
Ġbarrier
ĠFetch
ĠMarvel
Ġresist
bidden
ĠRunnable
:false
Ġbuilds
ĠStage
Ġdub
empo
.site
ĠDenver
Ġrevel
Ġtriggered
Ġdice
_fail
Ġgc
ĉX
ĠThrowable
.router
ĠRevolution
ÑĢÐ°
_NON
Ġelder
Ġabroad
ĠÐµ
ĠAdult
blr
glyphicon
Ġpromoting
Ġiz
ĠSolid
_loader
early
.enabled
-edit
ĠUL
_play
ĠInterrupt
Ġadvantages
ucle
Ġmechanical
.tableLayoutPanel
ĠWorking
Ġanonymous
Rating
igious
_phone
.addActionListener
Ġfran
unden
Ġ*)&
_bool
ulative
Ġcone
ĠMult
ĠmÃ¶
ĠForward
Ġconvinced
acted
ãģĵ
ĠConfigure
Ġceiling
Der
Ġpassengers
Groups
Ġsoccer
/W
aviors
swith
ĠZone
.Options
ĠMom
ieder
Arrays
Ġtreatments
Ġprotecting
fac
Ġpickle
ButtonItem
Ġblocking
strar
Ã²
ĠExport
Ġthrew
otta
ĠBASE
.ws
.LEADING
orderBy
_delay
ĠPu
.dll
ĠChoose
Police
ĠBEGIN
boxes
Ġdiamond
,l
Ġĉĉĉ
Ġcurious
tv
Ġerotische
ackages
ĉSet
Tick
.border
staticmethod
Ġcher
invoice
Ġcru
Ġdefect
_metadata
relation
ikan
[N
(Qt
(Base
beat
ĠEmpty
ĉo
_shift
Ġregret
Those
Cent
ĠPortug
ĠIslands
ĠTIME
Management
-sp
Ãªme
Ġnotion
unifu
PK
ĠCURLOPT
\"\
UV
dra
cou
=`
ĠDestroy
rp
.cancel
GG
runtime
ĠVue
Ġprogressive
/services
Ġrunner
_FRAME
.ToolStripMenuItem
Ġ','
delay
=utf
Ġscreening
Ġpulling
omas
Ġanth
-new
/local
ĠiPad
Ġtwitter
Ġdying
Ġheaven
ĠUInt
ĠSenator
Ġpresum
ĠWalker
Ġovercome
etection
Ġembarrass
China
Include
ROLL
ĠdataType
David
à¸£
lop
-month
Ġscar
ĠSafe
Ġ****************************************************************
Ġaccessories
Ġramp
_USE
Ġcontrad
Ġprest
ĠHR
ĠRap
Ġusize
Ġcapability
Ġcort
-next
Ġburden
_reader
Ġ@@
regular
ĠKa
MAN
Ġastr
Ġfed
Ġparsing
ĠYears
Ġbroker
":{"
Ġakt
Inventory
abeled
Ġargparse
versation
Ġcord
ĠTi
Ġhopefully
Ġah
verb
Ġstolen
.Entry
Ġexpecting
Orientation
Ġpowered
Ġpersist
ĠĠĠĠĠĠĠĠĠĠĠĠĠĠĠĠĠĠĠĠĠĠĠĠĠĠĠĠĠĠĠĠĠĠĠĠĠĠĠĠĠĠĠĠĠĠĠĠĠĠĠĠĠĠĠĠĠĠĠĠĠĠĠĠĠĠĠĠĠĠĠ
']);
ĠCash
ĉitem
grades
ropol
basic
Ġawards
(range
-all
ĠIBOutlet
ĠIndeed
----------------------------------------------------------------------------
Ġstomach
Ġflower
Ġsew
_times
avis
QString
ĠRoutes
_prot
Ġcomedy
Ġlogout
Ġwooden
Ġposter
piece
.Join
ĠPok
celona
mutex
Ġstrikes
Loaded
)arg
esa
United
Ep
PELL
ĠAtlantic
ullet
apple
Ġsettled
acon
Ġprinter
ĠGC
Ġrendered
,âĢĻ
heit
social
.ge
ĠRick
ĠUtah
got
onical
ĠScroll
ĠSciences
Ġjug
Ġampl
enti
LEFT
Ġtabs
Ġenormous
.getKey
locate
.EX
.storage
.We
Ġtoast
ĠAdditionally
ĠNOW
_UPDATE
Ġtransferred
tha
.Display
_ui
IDEO
Ġmeaningful
ĠMoscow
,this
ĠVictoria
ĠÐŁ
.stack
ĠBarn
paredStatement
:string
Ġbij
ĠSTATE
Ġemployers
ĉinput
(|
Ġlex
invoke
ĉnum
++,
atial
orses
Ġfork
_txt
ĠAntonio
Ġ(<
averse
Ġdevast
ãĢĢ
.Dec
ĠGard
/ui
.%
tri
Ġrolled
ValuePair
itten
ĠTher
Ġvrou
ĠFlow
ĠFinance
ĠComb
HC
.setVisible
isl
Ġpk
Ġupset
(raw
ĠVice
eatures
ĠLang
Looking
ĠAST
Ġtrips
ĠJustin
browser
="'.$
.vertices
-co
}/{
Ġ?,
ĠDomin
ĠBelg
"<
Ġsuppose
addy
Ġwalks
ERRU
_filters
Preferred
scene
ÐµÑģ
ĠAffairs
Ġ"#{
ĠonSubmit
Ġstocks
/view
gree
-get
hit
Jo
.getC
Initialized
ÑĤÐ¸
cuts
(Type
ĠAgreement
ĠVietnam
Ġ/*!
Ġpizza
-view
_em
Ġlhs
Ġmuy
ĠIdent
ĠFriends
Ġabund
_AD
.timestamp
-'
Ġduplicate
Ġhunting
Ġregulatory
iao
amous
ĠEntertainment
[A
iatric
_CLIENT
ĠKids
/pkg
Break
ĠShape
Ġrelating
Interrupt
ableOpacity
embre
Ġmystery
Ġjournalists
ritable
.Link
Ġstopping
CRET
.DB
Ġpopularity
Ġgew
Ġimpr
setValue
FLAG
ĉmax
Ġbake
wy
ĠEconomic
Ġencontr
Ġfname
/de
Rank
Ġbugs
.sm
Ġmedian
DOWN
ĠSure
AtIndex
ĠDick
Ġ(__
.delta
Fr
Ġsuggesting
ĠRecyclerView
,e
START
/****************************************************************************
xford
Ġreceipt
CLAIM
readonly
Ġengaging
Ca
asma
Ġensuring
English
ĠVancouver
hyth
Ġpurchasing
ĠPI
.word
(sp
.home
:def
Ġgig
ĠVe
forum
ĠMitch
Bay
_FL
Ġsoll
_columns
Ġminority
bird
Ġhanded
SSL
STAT
Ġnervous
ĠfilePath
CREATE
Aw
Ġpens
seed
ĠCompute
olk
ĠAsset
reach
navigation
LF
/util
ĠPub
ĠâĶ
cion
III
TagName
Ġamid
permission
ifiable
xFFFFFFFF
Ð½Ð¸
.Buffer
_irq
dark
Ġretval
.fire
production
.listen
ĠWeather
Ġbuyers
.ne
erp
ĠPent
Ġwelfare
ĠpageSize
ĠStadium
erta
Ġlev
ampa
Pager
Ġcharging
ĠNetflix
|null
_random
.xpath
Ġstere
ĠISIS
ponses
(loc
eyond
ĠOfficial
ĠMaryland
DataType
_par
{},
ĠEnjoy
_SHIFT
ĠAwards
_ENTRY
Ġseemingly
enticate
Ġhearts
ĠHIV
Ġindivid
ĠFlag
_ctrl
ĠCallback
,z
ĠGPU
ĉobj
ĠPhoenix
ĠBUS
Ġrubber
_AUTH
ĠSolutions
(location
Variables
.setEnabled
_high
WO
Gesture
Ġretry
ĠobjectForKey
alloween
Ġmos
ĠCele
Ġikke
(cell
ĠMODE
rena
Ġdescribing
Ġphi
Ġrd
Ġdeserve
Ġwheels
Ġcritics
Namespace
ĠFra
ĠĊĊĊĊ
Ġalla
Ġrequiring
utation
Ġdelayed
Ġadministrative
Ġbay
.hidden
Tex
Ġboundaries
ĠFollowing
~/
Fi
_conv
_TITLE
Ġdesde
ICollectionView
Alias
Ġbite
patient
_COMMAND
Completed
ĉelif
(<
Business
ĠPool
Ġpursue
ĠBan
_steps
_DECL
umble
Ġcombo
ĠLayer
.xr
Ġdup
---------
Ġmodifier
rob
rez
Ġathletes
Used
wear
Ġlegitimate
Ġhv
Std
ĠHold
Ġsurviv
ĠAlliance
ĠEarly
Behavior
(font
/libs
Ġrectangle
Ġsinger
Ġamp
EqualTo
Ġ"."
Ġgirlfriend
linear
observ
ĠpiÃ¹
Ġcomplement
WithValue
(password
take
Blank
ĠCompar
'",
_policy
mongoose
_FAILED
.report
Ratio
.PerformLayout
usable
mers
_render
PEED
Ġlesb
ĉE
_tool
Ġladies
Ð¾Ñģ
;;;;
.dot
Ġnest
peak
ukkit
eca
_SW
Ġ&(
ĠOklahoma
Ġbanking
ĠNintendo
Ġreproduce
_elements
_mac
proxy
Ġremarkable
}/${
Ġouts
.hasNext
MODE
Ġanime
.conn
Unique
Dom
Ġimportantly
itty
Ġjuice
Tw
ĠPartners
Ġattacking
Ġportable
amiento
.PictureBox
.gen
Ġoptimal
Ġrecre
Ġjournalist
ĠExtract
ĠMoreover
ĠmarginTop
.Ap
Ġfiring
NaN
ĉtemplate
.En
Ġdefence
ĠTel
ilen
jan
=data
ĠUrl
ĠReuters
(total
ĠFifth
Ġessays
Ġinterpretation
Ġcharity
ĠRules
Ġsubsection
styled
azer
lags
LIST
Ġuploaded
Ġtrash
Ġregistr
Ġseller
ĠstartTime
sy
(HttpServletRequest
Ġtrap
GC
Ġembedded
Ġsurrounded
imits
TX
ylinder
ĠFal
Ġsentences
ĠJa
IFICATION
weapon
ovation
Ġcoat
Ġinterpol
Ġlips
ĠKy
Ġvectors
_am
Ġintake
.world
Ġinbox
ĠMAC
_ab
(nameof
Ġentert
Ġgathering
ĠSIM
++.
nya
'}}
ĠUPDATE
Ġpac
(html
ĠSant
iating
ĠIdeas
Ġspray
ĠHart
Ġverification
adesh
/modules
ĠMind
ĠSizedBox
Ġshelter
Ġheroes
atty
Ġcertified
sj
ĠÃªtre
ÅĤo
Ġpublishing
ĠMalays
.getUser
ĠProvider
ĠLinkedList
ĠBor
ROUND
did
tain
pire
ĠJenn
tel
ande
_front
ĠMcG
TestMethod
à¸Ń
Ġoccasionally
ĠWales
Ġexercises
ĠÐĴ
-plus
Ġvalidator
Ġprayer
LATED
_author
Ġlabour
-equiv
ĠGPL
Ġfacebook
simple
gly
Processor
ipy
Ġ*>
Ġcleared
ĠPush
Ġpenis
Structure
lij
ĠMorgan
Ġhandful
|\
Ġ********************************
ĠAqu
_IC
.loads
Ġmeter
ĠMarine
::{
ĠTS
ĠArrays
.Title
GRAM
termin
Ġcoinc
Else
_states
-run
members
astro
ĠonPress
Ġbeings
Ġabandoned
Ġtaxp
owners
.mode
Ġdiagnosis
ĠKnight
ĉA
Ġobserve
),'
ĠPara
Ġvariation
(False
ĠAnti
Ġgri
Ġhomeless
?v
Ġbez
.Server
release
ĠPatri
Ġchars
Ġranking
activation
Ġwides
qr
.Sql
acular
ĠBot
_sync
Ġhappiness
Ġvolunteers
Ġsits
/<
[e
(fileName
Ġcapac
ĠMaria
father
Ġgram
*i
Ġcaso
_draw
ĠRaw
ĠIterator
ĠPadding
PD
BOX
ĠSPECIAL
Ġfecha
Ġvide
ĠLeader
$(".
Ġdiameter
Ġmild
Ġrocks
appings
directory
.flush
ĠJess
UNIT
ĠPear
Ġmandatory
Sur
qt
Ġstreams
Ġcooperation
ĠSac
Ġcheaper
ĉch
animation
fare
(height
(True
NY
Ġwrest
Ġpolls
Ġencountered
ĠMarketable
_PASSWORD
_SELECT
ĠArabia
_clock
Ġvoy
ĠÐ¸Ð·
Ġstir
isible
-effect
.created
Ġtoys
ĠTradable
Ġrust
Ġstrcpy
_timestamp
Ġtalented
,null
ĠJobs
ĠPortland
Ġweakness
Throw
ĠAngel
Ġuncert
ĠìĿ´
Which
Ġ[-]:
Something
Ġconvicted
kle
edium
Ġbranches
Ġbases
Ġcomplexity
ĠFig
.reshape
$db
_CONST
ĠTes
.runtime
Ġdeny
ĠBSD
Ġkr
hatt
ĠStatic
Ġuniversities
Replace
Ġdrove
Ġadoles
_plugin
ĠLGBT
Ġtex
duction
EDI
ĠTed
_URI
Ġreception
arten
.Single
rice
scious
_bg
Ġwages
ĠServlet
UILayout
Ġformatted
.Mod
<class
isen
Ġrepresentatives
"]=
Ġportal
ĠHunter
Ġhiring
riculum
uo
liest
Ġtears
Lat
Ġliteral
.Insert
Ġcurs
ĠComput
Ġterrorism
Ġsweep
Ġpassenger
Ġeastern
Ġtweets
Ġoperated
wnd
ĠSyn
.tools
ĠWM
ulates
Ġbacteria
(bytes
.setData
Ġvisibility
//================================================================
elm
Ġgenerating
Ġmv
Ġkh
jen
/search
Ġaccounting
segment
actic
.ip
Ġdeployment
Ġfooter
Ġexpanding
ĠHamilton
ĠContrib
.Tables
Activ
HH
ocommerce
_;
Ġamongst
owing
ĠCold
APH
Ġpsychological
_tensor
Ġpackaging
ĠSweden
Ġpare
Ġaggregate
Ġmoderate
_hand
Ġdesignated
Ġdrum
ĠgetUser
ĠCreek
_scope
ĠTransfer
ĠMarg
Ġfighters
Wnd
ĠSel
ĠLaunch
Ġemerging
iframe
ĠAdditional
Ġfears
Ġsatellite
_:
Ġdisposing
GetValue
HttpPost
ATIVE
ulary
Views
Ġattending
ĠTennessee
ĠMission
Ġmedication
ĠWy
ĠAnna
Ø¹
ĠVertex
.types
Organ
.DataGridViewTextBoxColumn
ĠRS
Ġtempo
(App
VersionUID
.point
ĠDutch
Hours
LU
Ġquoted
.builder
ĠPerfect
ĠAlways
_two
Ġexclusively
ĠCra
ificar
ĠAWS
ingham
complex
kernel
Ġgravity
Ġwi
Ġoverview
ĠWant
ĠWP
(sh
.rotation
States
ĠTeen
_components
ìĪĺ
Received
Ġlyrics
rites
ĉĉĉĉĉĠ
-American
[num
/python
ĠUART
Ġapple
ĠJonathan
Ġmomentum
à¸±
Ĥ¹
Ġmich
andra
Ġbiological
ĠMens
Ġ%%
elsea
ĠMexican
.randint
Ġtale
ĠValidate
Ġdefeated
.htm
Ġcopper
=/
cosystem
Ġrip
decimal
.VISIBLE
ĠTa
ĉĉĉĉĉĉĉĉĉĉĉĉĉĉ
Ġdownloaded
environment
Ġnomine
building
ĠSpot
ipheral
Ġalto
quet
ĠFT
/get
/master
WIN
West
argc
Ġproducers
ĠMuch
_storage
credit
CONT
Ġvet
Ġvoices
('',
Ġinstruments
ĠMSG
esse
repository
omics
Ġdealer
Still
Ġbanner
ascii
Ġremarks
[js
Ġshorter
gulp
Ġmyster
Ġkun
ĠBird
Ġtiene
nut
ĠUm
Ġwise
Yeah
INESS
_begin
-heading
Course
ĠčĊčĊ
ombie
graded
ĠGPS
ĠÅ¼e
Fit
caption
Ã¶n
/image
lia
(mod
Ġleak
enza
/H
ĠHappy
Dist
nx
ĠGovernor
(last
teacher
ĠSent
support
jectory
ĠÙħ
Registration
ĠGray
,false
Ġadjusted
(settings
<R
ĠMage
Ġplaint
ĉit
ometric
.bootstrap
Ġcarries
Ip
Ġ!$
Ġswimming
ĠMario
ĠQuestions
PACE
eor
}}"
Ġoven
ĠKon
Ġwisdom
Ġacquisition
essment
agine
Ġexpressions
SequentialGroup
Front
ulpt
awk
_AR
Ġanalog
ulin
_PRINT
ĠLG
Ġblob
ĠFurthermore
_component
ĠCole
LAN
SCRIPTION
Ġlap
icensing
_TIMEOUT
ĠFro
Ġliability
Ġcomposed
.createSequentialGroup
_person
Ġbeam
ĉĠĠĠĠĠĠĠĠ
ĠNotFound
ÃŃs
.TextView
PDF
Ġkar
__('
Ġ":"
_messages
Ġharvest
.history
-fold
ĠBetter
Ġ"\<
spacing
Ġfurnished
oser
Ġ$"
pull
.Post
(ip
Ĺı
.front
nte
ĠFM
guid
Ġnegotiations
agonal
Ġtremend
ungeon
Adv
carousel
ÃŁe
_DESC
Ġhammer
áºŃ
ĠĠĠĠĠĠĠĠĊĊ
-core
-service
Ġcorners
ĠSF
pred
>A
ĠJLabel
Ġromantic
Ġtestimony
osc
ĠGeneration
asures
_internal
Ġprints
ĠCleveland
repo
Disc
ï¿½ï¿½ï¿½ï¿½
Ġnearest
_tb
(require
EOF
-child
Ġbudd
.XtraEditors
alties
\":\"
Words
Ġlocally
Ġpurchases
Drawer
extract
Ġexecut
}'.
userdata
Ġfocuses
-minute
ĠPublish
ogo
Ġmountains
Bot
}>{
Ġtension
rod
mesh
Ġtransformed
,R
.long
Ġgorgeous
ĠSchedule
Ġoldest
Ġsubprocess
(IN
yect
ĠCooper
arness
ĠMonitor
.part
ĠNBC
Ġcotton
Ġhol
Ġrgba
ĠBio
Continue
Pod
Ġparticipating
clusions
(ByVal
Ã¬
ĠHOW
_setopt
Ġaccompanying
aton
Ġ/\
ĠAuthentication
iÃ©n
ĠBarack
/*.
Ġeager
ĠCancel
<lemma
eph
ĉwindow
Ġincidents
),(
.Des
ibe
ĠFunctions
Ġhospitals
Ġoxygen
rootScope
Ġdrew
ĉrequest
notice
aku
aments
far
Ġprecise
_wrapper
Ġlisteners
AZ
.bounds
ĠAverage
fieldset
_axis
Ġexamination
mons
ĠForms
íķľ
CppMethod
_trace
Ġengineer
ĠFlat
Ġrevision
Ġheating
/profile
.ru
priority
Ġinfer
_STREAM
Ġ*)(
>$
OLEAN
OKIE
IBILITY
UAGE
ĠSurvey
Ġresign
wing
Ġsecrets
Ġchips
JSONObject
Desktop
_SYMBOL
(resource
Ġnewest
uli
Ġdesert
Ġdip
ĠPow
Ġequation
Ġpossibilities
ĠFed
osph
Ġ[%
Ġbubble
etherlands
Ġcement
.auto
_AN
âĢĻ.
selection
ĠBond
Den
-O
.getType
.Window
pres
Ġswinger
Ġpip
Ġmice
Ġcompound
-plugin
iko
Ġcenturies
icular
-inline
ĉkey
>\<
ENSION
Ġprecisely
ĠÃ©tÃ©
ĠPast
ĠCambridge
-full
Ġanalyze
ĠSteven
Ġnem
due
oren
Ġmuscles
ijing
/-
ĠKennedy
RM
ossible
Ġactress
Ġdolor
Need
.toggle
ĠRace
wers
.material
ĠDue
ĠPel
#print
Ġindependence
exus
Shadow
Ġencoder
(level
ĠSwift
.doc
_selection
ĠserialVersionUID
Labels
Ġperformances
.Tag
ĠNHL
izen
/UIKit
_CONTROL
Ġearnings
ĠAlt
_HANDLE
Ctx
Ġpersu
Ġtran
_CHANNEL
Ġsatisfaction
ĠGP
iox
mitt
lando
Ġpig
inals
Ãªncia
Surface
ĠUUID
Ġbeneficial
Ġsequences
ĉmemset
Ġmagical
Â«
Ġworn
ASC
popup
COMP
_before
eness
Ui
Les
.require
.Serializable
addGap
Ġauthorization
.pyplot
urray
latitude
frames
ajs
Ġcompass
Ġobservations
_sup
.environ
Ġtriple
ĠRuby
Ġdrain
_FILTER
San
UMP
NullException
ĠGab
owe
ĠTurkish
_sequence
ĠGrant
uela
Ġwo
Ġcube
iq
Ġdisorders
Ġextraordinary
Ġctrl
ĠSeq
entr
Ġsanctions
utsch
Reports
Ġinherit
Period
Ġphotography
ĠFramework
Ġspecialist
_selected
.Player
Ġallocation
(account
Ġstructural
vable
-offset
.AppCompatActivity
.AddWithValue
Ġicons
Ġshutdown
_low
ĠCompare
ĠCe
=head
lam
.predict
_DEC
ĠSleep
ĠGratis
Ġsuggestion
ĠDEL
caff
avirus
Nothing
Ġwidespread
Ġmechanisms
ĠtextAlign
occup
ĠRail
:NS
Ġfiber
Ġmk
Ġvintage
-long
.reduce
.Entities
(record
Ġpleasant
FRING
.Cells
OTT
ĉelseif
_confirm
ĠViewGroup
sym
Ġpray
Ġsuspected
Contains
Ġborders
ĠcomponentDid
ASSERT
Ġinfinite
-order
Ġhello
ĠGrade
.currentTimeMillis
apolis
zh
ĉObject
:\\
HO
valuation
Ġvocab
Ġcoupon
atabases
.GetType
Learn
]="
ĠGary
otive
Ġash
Ġbib
XXXX
Ġbalanced
VALUE
ĠNat
_Ad
<E
ĠMethodInfo
LIB
Ġconsiderable
ĠIndustry
tests
.setTitle
ĠBluetooth
Ġmapped
ĠBruce
ĠMainWindow
ĉstatus
Ġraz
ĠMand
Ġclassification
Permissions
Ġ----------------------------------------------------------------------------
Ġcontainers
:set
_xml
Ġwhilst
Through
Ġvalign
Ġworlds
CORD
EDIA
Ġspare
ĠHad
ĠDEF
(ptr
Ġwarming
à¤¾
Ġconsensus
agne
CTL
Ġìķ
.Main
webElement
Ġpist
Flash
Append
.twimg
Tap
Ġvegetables
alg
.sample
Ġcoaching
(ind
CellValue
CheckBox
ĠHell
ROOT
Ġstadium
Ġinvestigating
)%
sted
ĠWriting
Ġê²
Ġuno
Ġ{{--
Ġcoords
Ġunser
organization
ĠCrime
ĠDemocrat
Ġvin
/file
-api
ĠAy
Ġfunded
ĠBrexit
ĠGh
entina
cases
Ġdash
HI
Office
Ġcaptain
Ġworship
\C
Ġglobe
_board
Ġbabies
Ġconsecutive
Ġenhanced
ereum
ĠAdvis
Ġgrain
Ġcraw
ancellationToken
.alpha
_WITH
ĠOtt
ĠCool
.batch
Ġverified
(callback
Ġregards
ĠIntPtr
oucher
Ġkin
Ġtouched
itÃł
athon
Ġadjacent
Ġaccompanied
LEAR
Ġimplies
Ġhill
ĠBaltimore
="-
Finally
Sam
icopt
Ġsod
Ġmaj
ĠShipping
ĠgetAll
Ġcoaches
Ġdonations
ilot
ĠTar
cerr
Ġbadge
Ġmarkers
ĠRand
aised
issance
Ġexploring
uced
ĠIndonesia
Ġbeneath
Ġmagnetic
Ġmuseum
matchCondition
Ġdisrupt
Ġremind
ĠTM
Ġ/><
Ġfool
Ġesk
.Null
ĠDies
_OUTPUT
_TYPED
Ġpainted
Ġsophistic
ĠBear
*n
_PACK
Ġdelivering
ĠCOUNT
Ġjeg
-car
fname
Ġranging
ĠNeg
/******/
ĠCHAR
Ġultra
Grad
=t
Ġjudges
ĠDise
anners
Ġscal
_cal
ĠCONNECTION
_embed
(fn
ĠCraft
ĠPas
")->
.convert
.resource
ĠSTATUS
Ã´ng
ĠTit
Ġclassroom
ĠArchitect
ĠKings
Ġsteady
ĠGene
icia
stan
ĠConstruction
umper
wc
ĠCBS
inging
-party
(driver
MARK
Ġnested
eward
Ġdependency
Ġmales
ĠONE
ĠProduction
][$
_LOAD
ĠBol
elry
ĠRequire
Ġplacing
xxx
CALE
Ġthumb
Choose
Ġprototype
VOID
Ġlesbian
Ġtraits
Sharp
Ġconsume
Truth
ĠactionPerformed
ĠEnvironmental
ĠDean
Ġestado
same
Ġnumeric
Ġtransit
.Email
-side
_RUN
ĠVillage
_OPEN
.rem
-warning
anya
PropertyChanged
Ġ(!_
(check
ilia
ĠSoft
steps
ĠMadrid
MemoryWarning
Ġhandlers
Ġexperiencing
Ġinspect
buttons
ReceiveMemoryWarning
chemy
Links
Ġurllib
.SystemColors
ĠEigen
Ġpunishment
:UIControl
bara
-set
Ġtolerance
Ġinterfaces
.redirect
ighbors
csrf
_background
.Utils
_HT
ĠInterest
imos
Ġgrants
Ġexamined
ÐĶ
Ġcf
forge
backs
ĠObjects
_sent
.entry
ĠTHEN
ellido
cia
,res
/stdc
.nd
(Int
ĠAuthors
ĠAppCompatActivity
'{
Ġmedi
Music
igm
ceipt
Ġauss
Ġtargeting
ĠKeys
hn
Ġmineral
Ã®
.ca
omed
Ġsheets
Ġcamb
Ġdeadly
.inject
(unit
ĠSelection
.gms
(connection
Ġ$("
Ã©mon
ĠCurrently
pte
_paths
leaf
Ġimplications
posal
[/
ancia
mul
cie
Ġgeile
imals
UIView
Ġsurre
serialize
ISO
Ġarbitrary
Ġsockaddr
.fn
ĠMerc
Ġcasting
KeyDown
ĠnewValue
opens
Todo
Ġflexibility
ĉĉĉĉĠĠ
Velocity
Ãºn
rowing
Ġcomputed
statement
Ġri
_cart
Low
transfer
.nav
Ġgrave
ĠDoor
ĉalert
.subscribe
-profile
ĉbase
ĠâĪĴ
Ġengineers
Ġexplosion
Ġdari
ĉLog
onal
Ġisolated
{i
ĠMsg
Future
Ġracist
-wrap
ĠVers
borg
ISION
ĠYan
initWith
Ġnomin
(empty
ÃŃn
ãĤ¤
ĉwidth
Ġchamber
/ajax
EMP
Ġneces
ivos
logic
*)&
cripts
RowAt
iblings
Ġears
Ġcomputing
Ġmaker
ĠNeither
breadcrumb
Ġserialize
ĠWithin
Ġdell
_TRACE
=a
Ġwishes
-inch
ĠDor
Ġinnocent
ĠDol
Ġintens
forced
ĠBIT
Ġphotographs
Ġcasa
ĠLen
\Framework
.Simple
Ġdear
)/(
ippi
Ġowns
Players
Ġproposals
.pi
usalem
Damage
Ġcalories
ĠCreative
Ġ[$
AndView
Ã¨me
.custom
_factory
commands
_look
Ġstrcmp
YN
aired
Ġaudit
Ð¾ÑģÑĤ
ĠReverse
ropriate
etics
<vector
.selenium
.or
Ġpredicate
Ġfinishing
Ġkle
ĠRepos
ĠKhan
ĠMaking
ĠFS
Ġpute
ĉstate
_SUPPORT
'-
orientation
Ġexisted
atura
Ġexpects
ĠShadow
Ġorganiz
Ġsuspension
Ġuit
Ġsimultaneously
ĠAffero
Ġrocket
cas
etermine
aceut
xl
ĠAMD
(graph
associ
_CR
.arange
(jLabel
Ġbeef
Quick
.card
]):
-gr
.GONE
_CLOSE
ĠNev
ÃŃas
Ġstepped
ĠFreedom
ĠWR
NSArray
_rx
_dialog
Ġhotels
Ġ(\<
ĠDiamond
Ġassumption
umi
(items
čččĊ
Ġnel
Books
usb
ĠFIN
Ġcorporations
USA
ĠĠĠĠĠĠĠĠĠĠĠĠĠĠĠĠĠĠĠĠĠĠĠĠĠĠĠĠĠĠĠĠĠĠĠĠĠĠĠĠĠĠĠĠĠĠĠĠĠĠĠĠ
.property
ewise
_plot
Ġpepper
Ġshed
ĠMedium
ĠCookie
Ġoverseas
edor
asurement
Ġ'.'
Ġphp
ĠPROC
Ġexceptional
(th
ĠJet
Ġoccupied
.setImage
ĠRelated
ucker
Members
PRINT
ĠGlo
_VIEW
Ġadoption
ĠMissouri
ĠLincoln
erald
Popup
Ġfate
-bootstrap
fections
ĠPoll
_ARGS
inance
-home
.),
_done
Ġdiscussing
ĠSQLException
Ġelectro
ĉreq
Ġzw
Ġlui
Ġovernight
$user
ĠWAY
Ġallerg
Ġdisappointed
Ġradiation
Ġimpressed
ificates
Ġtob
CLASS
Ġcuda
_det
-post
ulu
Translation
-hand
.year
ĠMongo
Ġunclear
.engine
WEBPACK
rices
_ACCESS
Ġholidays
percent
.Identity
ĠGov
Ġpassionate
!!.
ĠGreece
plusplus
'));
GP
Ġexcit
.tabPage
_cond
Ġsponsor
MODULE
_proc
Ġrational
.Tool
Ġihr
cca
ĠEstate
IBUTE
ActionPerformed
ĠSolar
Ġequity
tid
Ġrecip
.simple
mk
ĠLuke
ĠGuardian
Ġencrypted
Ġdominant
.place
ĠNV
Ġtongue
(Get
Ġstainless
.Play
Ġeb
aci
.buffer
readcrumbs
Ġvaccine
prom
ĠuserInfo
Ġslug
SerializedName
-wide
Ġreactions
ĠYang
ĠAdds
(userId
Ġplates
ĠMEM
Ġbail
Inside
eted
Ġelsif
Ġsake
Ġcycles
ĠìĹ
ĉI
-collapse
ĠGMT
Declaration
Ġgros
Ġreaches
Ġcustody
Until
tu
ĠChen
Ġnx
(addr
ĠOffer
Ġcolleg
assador
Ġmapper
ĠSIGNAL
ĠBloom
ĠHoll
ĠImper
-des
_site
Proc
Equ
Ġatomic
ĠWoman
sent
scar
Ġintelligent
ĠGetting
ĠRegistration
ĠPhill
Ġkiller
unicode
ĊĉĉĊ
ĠJacob
ĠConst
Ġlocate
Ġcaus
ĠScholar
Ġconstitutional
Ġinflation
ĠGot
=array
endum
Ġtranslated
Ġdivorce
Entries
Ġsor
ĠQuote
irlines
UK
Ġexcel
(opt
ĠADV
,:,
Ġcontacted
ĠDA
Ġrings
ĠIndustrial
.getContext
Ġforgotten
ĠTan
Ġpants
Ġov
Ġdecoder
ĠPartial
Ġvc
Ġbattles
Arial
FRINGEMENT
irates
,w
aintenance
ĠOd
ĠTechnologies
ĠCarter
.findAll
Nome
Ben
ĠUsage
ĠPicture
Ġbadly
_panel
Ġpatent
ĠProtocol
lotte
ĉplayer
jections
Ġdou
_release
urniture
_tax
ĠFields
.dataset
_master
CLUDE
ĠPharm
bst
Ġoperational
.cell
Ġidentifying
Ġjwt
tuple
ĠTC
ĠCro
ixmap
-components
general
Ġoz
_De
_double
ĠToo
.ViewGroup
gate
dings
photos
Ġgrande
ollect
_lin
Ġawful
filters
Ġalternate
esp
Ġcompress
eo
ĠScale
Ġindirect
Ġinvoice
ĊĊĊĊĊĊĊĊĊĊĊĊĊĊĊĊ
Starting
ĠPlayers
iele
.then
Ord
ĠTuple
Ġbout
ĠStatistics
Preview
Ġpuzzle
ĠWidth
STATE
Ġoverlay
ĉon
Ġinfr
Ġsmallest
locked
ÑĤÐ¾
ssl
Ġdeemed
Ġsco
reck
ĠjButton
Ġmissions
.SelectedIndex
TABLE
Sept
Ġacknowledge
Ġstrtotime
ĠTell
ĠDak
Ġaluminum
Ġfence
ĠStars
CONFIG
Ġretrofit
Ġemphasis
/header
ĠSomething
inished
='".$
ĠValidators
Ġpolar
sections
.aspx
Ġaspir
.Mock
CodeGen
Ġpeut
Ġaccepting
Ġbacking
Picture
/ap
_SEC
-use
annotation
Ġcognitive
Ġgrip
hour
ĠLegal
Ġepic
.toolStrip
.notify
.Last
ORIZ
Middleware
criptions
lash
_FOUND
ĠLiverpool
Ġ{}",
Install
Ġnit
Ġfigured
[len
.Win
.platform
Ġgambling
(dt
avery
ĉinclude
Whether
Routing
Ġtherap
Remote
ĠLoss
yll
Ġapproached
ĠVehicle
ĠAlpha
ĠvocÃª
answers
NSDictionary
consider
unused
ĠFan
orable
fre
ĠDISCLAIM
ĠActor
.]
toHave
.userId
Ġspeeds
eway
Ġrecurs
ĠÐ³
_priv
Choice
Ġsettle
Ġplanes
'},
Tom
ITER
achelor
Ġseparation
Ġdal
adj
Ġregisters
riz
ĠNotice
Ġlu
Ġcourage
Ġaxes
cellent
.async
Ġcompatibility
ĉtitle
YLE
ĉmessage
UUID
OLDER
ĠHH
ĠStyleSheet
Ġaccessed
.validation
tasks
Ġpollution
.canvas
Ġingredient
ĠCabin
Ah
oldown
ĠNOI
ĠÃĹ
[f
educ
yalty
(not
_State
amen
Ġdao
udad
ellers
}&
licity
_WINDOW
Ġtatto
valor
.Range
Ġreferenced
ĠReserve
Money
SCRIPT
/product
choices
Ġtin
ãĤĵ
Ġseparator
Ġpkg
ammed
ĠMAT
Ġraid
Ġmotivation
ĠXP
ĠBackground
ĠQuaternion
.defineProperty
iker
ĉparent
ĠOriginally
antage
ĠHans
Ġtimeline
.cur
opic
ĠSequ
must
ĠCoal
Ġformatter
_RGB
Ġ_("
Ġ=================
ĠFUNCTION
Ġlng
icates
live
_engine
Ġtowns
ĠPK
(api
ĉscanf
packet
.phone
áĢ
ĠAndy
_NAMES
PLY
Ġmins
imi
Ġbrick
Ġblade
.stdout
Shift
ĉsb
ĠChecks
Ġphenomenon
Avatar
Ġministry
rose
ĉFile
Ġtitled
(LOG
Ġgan
design
Ġbones
stm
ÅĽÄĩ
ĠInputStream
Ġvolunt
ĠSerializable
Ġfighter
ĠDrag
Twitter
Ġsubsid
Ġforums
.loading
logged
_this
Ġterrain
Ġirre
ĠIng
ĠCN
_objects
.uid
Ġconsciousness
TINGS
ĠGall
Ġportray
ĠDeveloper
Ġparticipant
/model
ĠOperations
^\
ĠLater
Ġraises
-none
.meta
='.$
Finished
Ġreplacing
Ġsampling
ĠJen
"There
REAL
ALE
ìĬ¤
Orders
_parameter
ĠOlympic
ĠtrÃ¨s
Ġarena
iol
;?>
Ġimpacts
ĠWS
:get
Ġflights
ĠRussell
camera
Fn
sigma
Ġforcing
Ġlocals
Ġdeparture
Ġcelebration
ĠSay
ï¼Ĵ
ĠHills
.hasOwnProperty
Ġtypings
.API
Ġdonation
OperationException
.Activity
cplusplus
ĠCharlie
Ġimported
Ġdann
Ġoccasions
Ġimplementing
Ġpurple
.dialog
SQLException
erno
Ġwars
Ġpaste
Ġdecreased
Ġharsh
Ġelabor
inputs
ĠViews
ĠerrorMessage
_mul
ĉwrite
ĠCop
ĠAnnual
(button
Ġvida
bars
ĠHarvard
ĉexpect
Ġindexes
Ġdocumentary
Ġflesh
ORLD
ĠDelta
MAND
Brush
-column
Ġdevelopments
methodVisitor
slice
ĠPDO
Ġinvesting
irable
Ġxmlns
ï¼Ľ
arta
Ġtheories
_city
Ġ$__
Creating
(pr
Dropdown
ismatch
ĠNET
ĠValues
ĠSEO
ĠSTAT
Ġecosystem
Ġtempt
Ġ\\
ĠChristopher
ĠKentucky
ĠHttpServletResponse
Ġhybrid
yon
Ġfeeding
ĠExtra
Norm
ITCH
ĠSean
ĠUpload
mun
pur
Ġpersistent
ĠIDC
ĠPerform
.merge
_room
Meanwhile
!='
ĠWel
ArgsConstructor
.Database
Ġcounting
()*
ĠTOP
mill
ĠDT
IGNED
ĠKB
Ġcomply
South
_collection
Chapter
Ġexplaining
_AM
_ts
cards
Ġquel
Ġpole
Ġtouchdown
ĠOthers
Ġpeers
ĠTypeError
Ġsixth
Ġcheer
Ġdispute
usc
)],
thumb
Ġhiding
ĠSIG
likes
ĠPAGE
.Reflection
Ġheadquarters
TING
ĠGhost
MLE
Ġcontrary
extend
']).
FFECT
ĠPinterest
Ãºmero
ricane
ĉsession
Ġcrystal
-Control
overnment
ograf
-action
volume
ften
Ġuncon
Ġanimate
Ġlease
scr
Ġrefuse
ãĢĭ
ftp
information
Ġevaluated
Ġinjection
Ġjack
Ġworkshop
PTH
ĠTs
offer
ĉos
Ġkingdom
Missing
Ġlawmakers
extField
Ġsinging
abi
/client
.media
ATEGORY
Signature
ĠFuck
][:
Ġsensors
/com
ĠPrimary
.SQL
_program
Ġpills
Ġintegral
Ġfleet
Ġdropping
.sl
Been
Ġpets
Ġadvised
Ġdragon
_EDIT
(im
FER
ĠDrug
(random
Ġcompression
oust
[%
Ġbuyer
hop
Roles
manage
Ġpainful
ĠBranch
-modal
enant
ĠMesh
/font
ĠGraham
Ġâĺ
Ġnc
ĠFrancis
Ġspecification
Ġdamages
-config
Ġtheoret
secure
_multi
aceutical
Ġdemanding
enne
ISTS
Reason
Recent
phase
Ġpsy
_MAN
Ġvolunteer
istributed
lio
Ġproductivity
_comm
Spring
nis
.weight
ĠCancer
Alloc
ĠTweet
Ġseparately
ĉcheck
_properties
.Unit
_CLK
Ġgt
Ġhandy
ĠThompson
Ġunnecessary
ĠReader
GN
=request
ĠUtility
.Repository
ĠAx
hydr
ieu
Ġthy
Ġlt
_mail
ailand
ĠPhilip
Ġbitter
Ġbetting
Ġtimed
ocks
'a
Ġalgorithms
Ġreinterpret
Ġtoss
rogen
Ġhoped
(selected
Ġventure
TEX
ĠLeave
.Substring
Ġgrateful
uka
ĠConsumer
Ġaggreg
Circle
à¸ģ
_blocks
Ġlegally
Ġ"|
ãĥĥ
.board
.Ab
Functions
recipe
ĠOxford
Ġwholes
.Build
_changed
hai
Ġdepartments
Imp
Ġcoalition
INFRINGEMENT
Ġempower
itches
North
Ġinflamm
ONSE
Ġmissile
ĠRaj
ĠIssue
Ġatoi
caled
.Controllers
ĠWolf
Ġcrushers
á»ĩ
.Auth
.addAttribute
his
Ġboots
.clean
camp
Ġtenant
Ġtune
Ġ{}'.
Ġworkout
Repo
Ġpartially
MISSION
jamin
ĠSB
Ġdetermination
ĠBeng
Ġvos
Ġinhab
/lang
sburgh
Executor
hone
ĠChallenge
_links
.Level
Ġunderground
-code
Ġoptimization
logging
_dest
Ġsnake
Ġchemicals
_IMPORTED
adoop
ĠTHAT
managed
Ġreduces
ĠREAL
ĠGuy
_GENERIC
/********************************
.amount
Ġdere
getTime
Ġpant
anonymous
Ġharmony
ĠAlan
Ġscenarios
Ġdirt
htags
Mc
Shell
rin
.pow
ĉclient
Ġconspiracy
Ġadmission
ĠRegional
ĠViewController
ĠPhilippines
Ġdepos
Ġpap
ĠPad
Paul
.ComboBox
Ġtutor
ĠRecipe
writing
Ġcontributor
OTH
Small
VI
Ġhacer
equ
ĠExamples
human
.messages
ĉtyp
ĠSSL
LEN
ĠRomney
(grid
ĉmin
Ġfruits
Ġvoter
Inline
pane
ĠCollections
charset
Ġspam
zb
itemap
Ġsucceeded
_COL
Ġelapsed
imeter
Ġrecovered
Tensor
hattan
.setup
isto
(head
ĠSIZE
Ġtactics
Ġdistur
Ġpreval
icios
(Value
_cols
ĠFat
Ġseal
Ġsons
Ġensures
Ġpressing
=&
igenous
Ġharassment
_JSON
Ġignor
ynomial
omer
_static
Ġsignificance
Ġcircles
_System
Ġdiscipline
Ġdressed
Ġsphere
Ġclimb
_actions
ĠBab
Ġ'=',
_schema
"use
Ġunders
Ġcups
.screen
/new
Ġappearing
TOP
vised
clang
Ġinvestigators
Ġmysterious
Ġpromising
Ġqualify
Ġcave
Ġequip
=x
GT
(link
.velocity
.erase
oter
++++++++
profit
Ġzones
_uid
-ser
Ġobjectives
Ġmilf
webkit
(match
neh
ĠAssociated
ĠTodo
=d
Cam
Ġvocal
Ġsudo
(EX
Ġtrou
ABC
.bean
ĠGround
ĠREST
weets
Ing
imon
_bus
ĠCOLOR
unto
Ġfoss
ĠLinks
Ã¤ng
/forms
prises
Ġachievement
CALL
ÐµÐ»ÑĮ
ĠVerify
_SOURCE
aptcha
IDD
_reference
Gold
ĠĠĠĠĠĠĠĠĠĠĠĠĠĠĠĠĠĠĠĠĠĠĠĠĠĠĠĠĊ
Receiver
Ġaj
_direction
}]
ĠCompet
Ġbang
ĠCass
-url
techn
ĠJerusalem
longitude
Ġwinners
Tasks
ĠDMA
Ġtooltip
ĠBra
_duration
cury
parents
----</
Ġpassport
WC
ĠÐ»
cession
ĠYellow
Ġencryption
Ġlistings
ĠCommunications
Ġfb
Ġstrictly
ĠLiter
ĠEnterprise
_bottom
AKE
ket
Ġtam
Between
_TOP
Disable
Ġfiling
ĠChron
SEQU
Ġ&___
Ġfal
ĠSLOT
Embed
uther
ĠRestaurant
Ġrealistic
ĠDEAL
ĠPeriod
.getX
Ġsehr
"]').
essa
ĉmemcpy
Ġacknowledged
senal
ĠUniversal
/wiki
ienne
ĠNSArray
Ġacceptance
Ġliver
Ġtooth
Ġaccus
ĉLOG
valu
Ġsectors
perimental
/class
_go
Michael
olatile
ĠPROF
Ġcomprom
specialchars
Ġâľ
ĠisEqualToString
ĠHung
.asList
/go
>>(
ĠKir
Ġintros
Ġsketch
Ġskilled
Ġimmer
Ġadequate
_rep
(header
_like
Ġperceived
ssh
Ġassuming
Ġff
_uuid
ulas
Ġdemocratic
.entities
Series
aphore
Ġnewer
}(
SEC
airo
Ġcommod
Ġprivilege
Ġdeux
ĠHop
.'/
ctic
<?=
ĠUT
eties
_CONTENT
.release
.dismiss
Ġfc
ounge
pwd
_prev
Mgr
ĠBufferedReader
written
ĠEb
uito
Ġcontroversy
Ġdisposed
Ġfoto
ListView
/create
ĠCOL
communic
Ġfreely
unal
ovid
ĉtr
pagination
ĠCommons
Elem
ĠREM
Ġcorrelation
()+"
ĠHide
anding
(vec
itos
ĠCult
Ġnutrition
vals
Ġdetermining
lord
Ġscandal
Ġshallow
odash
_serial
ĠSlo
Ġdispon
Plot
ickle
Ġell
Ġunemployment
FM
rons
lÄ±
Mo
Exist
IDS
Cho
ĠKeyboard
.parser
.GetObject
Ġspells
Ġgesch
Ġmagnitude
_SL
isdiction
ilians
Ġshar
ĠProb
uiltin
Ġtunnel
>C
ĠWarren
Ġoptimizer
ĠSERVICES
_oper
getAttribute
ĠMcK
_self
.rs
GetComponent
erce
Ġtous
units
Zoom
/E
Ġobsc
Ġfastest
online
Ġpeaceful
ffen
Ġcargo
ĉpr
Ġseeks
zu
Trim
Ġward
Ġverd
Ġblogs
.exceptions
ĠPremium
ĠNetherlands
Safe
Finish
ĠAlbum
_ACC
=this
virtual
]>
_LABEL
ĠNich
_win
ĠAaron
WP
;$
aims
ĠImageView
Ġendless
ERA
_DISABLE
Ġcancelled
-us
Ġinspection
emin
ĠGrey
-open
Ġiterations
.owner
Ġkeras
.Password
ĠRy
ĠINS
Air
ĠSeveral
.TabStop
INGLE
ĠHair
ĠCanvas
AAAA
Ġflaw
cedes
.Report
íĬ
ĠTips
criptors
.transaction
.Spring
Ġviewer
Ġinsights
ordion
UINT
seek
ĠAuf
ìŀĲ
Ġstrain
Tooltip
Ġdz
ignal
adt
Ġuc
finite
Ġnm
.cmd
ĠMySql
[data
.jackson
.tree
RequestParam
_agent
Ġassass
(Constants
:ss
ĠMAN
+-+-
ĠBottom
prints
ĠSame
@Autowired
swap
iciÃ³n
Ġprotesters
Ġhoney
ĠVeter
(Calendar
-ad
ĠBrooklyn
Life
_VAR
zech
ĠCALL
_CAST
ĠElection
Ġthickness
Very
_INTEGER
-dev
))))
apat
oooo
demo
ĠparseFloat
ĠRather
STIT
maker
[current
chrono
Ġchrist
ãģª
ĠDetail
ĠĠĠĠĠĠĠĠĠĠĠĠĠĠĠĠĠĠĠĠĠĠĠĠĠĠĠĠĠĠĠĠĠĠĠĠĠĠĠĠĠĠĠĠĠĠĠĠĠĠĠĠĠĠ
Ġsul
idency
Que
Ġelegant
apons
Ġdishes
Ġintegers
(read
findViewById
ĠAmount
ĠSkip
Ġhabits
*)(
Ġmonsters
MAC
:end
Ġfrank
Assembly
Ġdfs
Ġneut
_TYPES
equal
loyd
(uri
Ġchi
Ġdefendant
Ġconflicts
Ġvil
-js
ĠPeace
Ġmutable
)sender
ĠFocus
Ġappreciated
sleep
ĠRED
Culture
Ġdesigners
_generator
codes
/ex
.GetValue
umbled
.scalajs
peror
Ġveterans
Ġunfortunately
_CREATE
Mass
ĠCLAIM
ĠMeet
_support
Bank
Dark
_LOW
ĠMining
ĠOwner
iera
Cliente
Ġencouraging
>S
Ġboyfriend
ĠHalf
ĠACC
Aff
_ar
-life
cx
.JButton
izado
.zero
.openqa
oton
.textContent
Ġtoll
atie
Ġballot
-number
.Exception
ĉparams
circle
-map
Ġnap
ĠRobot
ĠIch
registration
Amazon
rollment
(exp
Ġtanks
ĠGordon
Ġmachinery
Ġbaseline
Ø©
ĠConvention
ĉconfig
ookies
mult
Records
ĠEST
Ġgarbage
Ġconform
idal
Ġbarg
Ġsurvived
Ġinvestigations
.containsKey
ortion
Ġhorr
_http
Ġmant
binary
empl
Ġinquiry
ĠMeanwhile
Ġcollecting
.EntityFramework
ĠPic
@Inject
ickness
ĠBinding
Ġcontrolling
reverse
Ġchairs
sembled
(add
Disabled
anas
.translate
Ġreflected
External
Arrow
Singleton
%x
ĠÅ
Ġancest
ĠOrleans
ĉcmd
Ġprohibited
ithmetic
(channel
_css
Forward
.socket
Ġluc
âĨ
ĠFirefox
ĠMovies
)_
.ends
(shape
Ġdealt
Ġsaves
Ġglory
Ġmejor
Ġbreathing
Ġeller
getData
Ġangles
Ġtoolbar
Ġspacing
IPS
Ġfloors
_ACTIVE
Ġshuffle
/shared
ĠEle
edish
Ġwebcam
.expect
iloc
ĠIncludes
Ġtweeted
Ġ:)
ĠEssay
Fix
-between
_web
.conv
Ġracism
Ġreflects
umm
Ð¸ÑĤÐµ
_footer
/docs
ĠPour
NgModule
.initialize
patterns
_In
ĠAbb
Ġsentiment
buff
_counts
Ġreuse
chunk
Ġimposed
PrimaryKey
Foreground
Ġconsumed
?!
Ġdick
Ġchron
ĠFern
Ġresponsive
Ġinsect
iculty
Ġrw
Ġalike
Ġsubset
ĠCookies
ĠPair
Ġtier
IFO
avour
ĠQU
,sizeof
Ġmerged
mv
itol
ylon
Ġjumped
.role
ensaje
Rules
Ġbrowse
Animator
Ġyoga
Ġvariants
Ġcourtesy
uran
pbs
elseif
Alt
ĠLane
CLK
IMARY
_PROPERTY
ï¼Ĳ
Ġchan
Ġgradually
Ġshake
Ġblonde
-sex
Ġgameplay
acies
.refresh
USB
ĠPlot
Was
issippi
ĠTensor
Ġcryptocurrency
Ġdifficulties
Deleted
Without
_append
_ver
Ġhonestly
Ġpivot
Ġtemps
_ps
ĠUnlike
[:-
VS
_inf
Ġjunior
Ġanimations
Ġfilepath
?</
[\
Ġoperates
_red
ĠBootstrap
lead
effect
Â½
ĠSter
ĠBuck
ĠĠĠĠĠĠĠĠĠĠĠĠĠĠĠĠĠĠĠĠĠĠĠĠĠĠĠĠĠĠĠĠĠĠĠĠĠĠĠĠĠĠĠĠĠĠĠĠĠĠĠĠĠĠĠĠĠ
Ġdeputy
Than
áº¿
ONENT
ĠHeat
etheless
Ġkostenlos
();//
Ġdeployed
>{{$
Ġunicode
places
ĠCoffee
.SE
ĠPAR
(txt
gebra
Ġfires
MainWindow
medium
Ġ(âĢľ
Ġlg
Ġcmp
/base
_layers
_entries
Ġadminister
ĠSUCH
BP
ĠScottish
ĉčĊĉčĊ
guard
ĠStrong
Insn
ĠCAP
asury
ĠSEE
Clock
erie
\models
Ġ$$
ĠCab
Ġwurde
Ġsoldier
Ġclips
Ġarrangement
ĠWonder
ĠHorn
Ġscared
Ġcure
mkdir
Ġaligned
ĠPink
Ġlanded
Dimension
ScrollPane
.chat
.With
ĠTrain
Ġthirty
Ġdurable
Ġld
Ġlateinit
Ġcharts
Ġinsult
.Fatal
_ct
Ġmasks
CLUDED
President
Ġcolours
gments
.attributes
ĠFlex
ĠClock
ÃŃcul
imen
JO
ĠRegex
_LINK
Ġcouch
ĠINPUT
Ġbeating
business
preced
.unit
ĠFel
Never
ospel
.startswith
ĠEPA
.only
Ġpreventing
yer
ColumnName
Ġelevation
flu
icycle
Ġoffline
Toolbar
Ġcompeting
)].
Ġmog
ĠisValid
Ask
_av
_lat
ANC
ĠJoh
kers
Ġguards
Ġchains
ĠSimpleDateFormat
.static
Ġvessel
Ġmud
Ġstabil
Ġstret
gm
amation
-with
Ġros
_PA
Ġresultado
Ġconfidential
ĠTokyo
ĉusing
ĠMathf
ombine
ĠESPN
Ġdealers
Ġdismissed
TRY
Ġteens
records
Ġwings
gallery
accounts
_LIB
Ġjacket
ĠNSObject
Ġstones
ĠDelivery
ĠDiet
/watch
Ġtoilet
ĠGuest
.day
Ġintval
Visit
Ġinvestigated
Ġpentru
ĠTheatre
andidates
Lang
ĠServ
Ġcontrollers
ĠsetTitle
NP
amy
flat
(ui
_document
ĠCoin
ĠAdams
ptic
Ġproductive
Ġaccomplished
čĊčĊčĊčĊ
Ġdeferred
ientes
Ġsinc
olars
Rightarrow
Ġvariations
(offset
.LayoutInflater
Ġsuspend
Ġprevention
_private
_js
âĺħ
Ġwieder
atum
Ġappearances
.Document
Ġvalidates
calendar
.demo
conut
Ġcorrection
ĠDeal
Ġbatteries
.duration
,\
_marker
multi
Ġhalt
Ġcms
Ġshaped
Bro
reduce
Ġ####
CTOR
ĠBenef
Ġiconic
Ġpiano
Ġeffectiveness
Ġajax
Ġvolumes
à¸¡
Ġcljs
ĠĠĠĠĠĠĠĠĠĠĠĠĠĠĊ
aths
raits
Ñĸ
_mult
Ġfascinating
Average
ĠprÃ©
ĠChairman
.findElement
_pin
Ġcomparing
Ġdarkness
-Fi
-server
Ġselecting
sterdam
ĠParts
FORMATION
Ġnoting
Ġpile
ogs
Ġpalette
_do
itize
()(
Ġdefining
Ġremainder
Units
_TASK
HttpClient
Social
Ġfundra
NR
chest
Currency
.adapter
Ġdop
unting
ANGUAGE
"He
ĉindex
_package
.Icon
Ġrepet
mass
=".$
ĠSud
Ġlid
province
ìľ
GPIO
Ðļ
ĠMySQL
Ġdocs
ĠGA
Ġipsum
Kernel
Ġaccepts
Ġfitting
Ġcuando
Ġduplic
ĠBrother
ĠKle
nums
Ġmorph
Ġ########
ĠCGPoint
<unsigned
ĠDuke
.setBounds
qs
oric
jer
Ġregarded
HttpRequest
Ġbonds
Ġthoroughly
encent
Ġhighlighted
Ġacres
Ġworkplace
ĠLux
Ġquot
.inflate
Ġdocumented
Ġaddiction
Ġmutation
.city
Ġbottles
ĠRepository
onn
errno
ARIABLE
_BEGIN
glas
ĠMassage
ĠWhit
regex
WA
Ġoutlet
-head
Ġexpired
ĠThai
/include
gradient
scanf
Ġseam
wal
ĉbuf
Bearer
Ġprecious
ifacts
coord
Ġexploration
.getY
(handle
Topic
ĠVent
rhs
ĠBright
Ġguild
mother
storm
Ġmunicipal
Ġink
.TYPE
wl
...</
_DEV
="./
_book
thy
itzerland
oples
traction
ĠCameron
ĠAndre
.results
Ġchrome
Ġsecured
Ġsurfaces
)<
Ġtobacco
ĉsprintf
Ġescal
Ġstderr
ĠMelbourne
Ġdistricts
Ġmatt
ohen
ĠdataGridViewCellStyle
(Model
Ġsensitivity
KA
transport
.getDate
Ġsubtle
UGIN
.mouse
Ġalternatives
Ġelle
coration
reation
_NORMAL
DisplayName
Ġfancy
ISED
MOD
.ReadOnly
ĠUb
ĠCu
icol
ĠNelson
ĠCOR
anza
ĠSpark
Ġ"\\
woocommerce
Ġremembered
verity
ĠExtension
ĠPD
Ġsearches
.so
ĠFooter
Ġ='
ĠWARNING
-lo
ĉtable
Ġdrawer
picture
ĠFantasy
story
ĠmÃªme
_slice
oltage
Har
/y
ĠER
die
ĠPOS
.actions
(Main
ewart
apeut
ĠSTE
idding
.readLine
Ġsearched
Wed
.figure
ughters
().__
Ġorbit
shipping
Ġfriendship
ĠShift
-or
quo
WHERE
ĠEsp
.forward
office
ĠiÃ§
ĠChelsea
ItemSelected
achers
deleted
rous
Ġ"-"
ĠGran
ĠðŁĺ
-power
etta
Ġreminder
ensors
ĠAllow
ÄĻd
_team
Ġcrown
ticket
ĠcollectionView
lace
Ġfixes
ĠHub
catalog
ĠIdentity
Ġexcessive
ĠNavigator
_BR
-play
ĠCampaign
ĠĠĠĠĠĠĠĠĠĠĠĠĠĠĠĊ
asive
Ġwc
ĠBeijing
/www
Ġmakeup
Ġdistances
Ġsatisfy
COND
Ġwound
()]
Ġviolations
Ġstays
/#
iline
\Exception
ĠMotion
Ġheal
_plan
rases
(main
Apple
Ġcompleting
Ġdetermines
Scan
Ġsteal
ĠSoc
Analysis
Ġfavorites
Ġcampo
oner
ĠFlight
-count
Ġpw
AsString
Ġsexually
FirstName
ĠEscort
calc
ĠWikipedia
Ġdocker
ĠSweet
'id
Into
ĠHunt
.equalTo
Ġlaboratory
ĠBUSINESS
FileDialog
TreeNode
.Enc
ĠMaximum
Ġmothers
Ġfract
.startsWith
Ġhardcore
.ob
Ġ></
_ro
((*
????
_vertex
keit
ĠHalloween
TI
ĠVa
_car
="{{$
Ġrandomly
Ð°Ð½Ð¸Ðµ
Ġshocked
ĠPokÃ©mon
signal
ĠSDK
middleware
Ġtreating
Ġburned
Department
ĠSpect
Ġcliente
ĠReddit
_avg
Ġinstalling
_alpha
,data
ĠsetId
ĠListView
(property
Ġcrossing
ĠObj
ĠWard
ĠRedirectTo
ĠPresent
Ġdraws
cheduled
Ġlegislative
Ġtwist
ĠStra
ĠAFP
ĠChap
-pr
:CGRect
Ġces
Routes
nof
Ġvisa
ĠTCP
ĠEVEN
ivial
ĠLetter
RAY
Ġimplode
.eq
='+
Ġmotivated
.visible
.short
>manual
ĠTechnical
Ġcorporation
ĠHW
anka
TAIL
istas
Ġperforms
ĠBehavior
.For
_ORDER
ĠKick
Ġcallbacks
_dr
uego
hub
ufficient
sky
Ġbp
htable
ĠONLY
ĠAUTHORS
.Argument
ĠThunder
ĠKom
.Should
AUTH
ahu
_payment
Ġstarter
ìĦľ
ìļ©
Blog
.patch
Ġgoverned
assy
-found
Ġtheater
ĠFontWeight
ĠBatman
"If
.Random
_delta
ĠCE
Authenticated
Ġdrone
Ġcous
radius
Mer
(None
ĠNJ
_headers
Ġamer
pytest
ĠActions
ĉĉĉĠĠĠĠ
Ġett
Ġholy
Ġuncomfort
ĠNin
ĠDecimal
ĠMessages
.sender
Ġembrace
Though
/sp
Ġcultures
Ġhighway
tar
.fail
_hidden
ĠcomponentDidMount
ĠWright
Ġjag
_il
../../../
igu
Food
Ġace
ĠaÃ±os
USD
Ġmutual
Logic
Ġtemple
Ġbriefly
ĠTrip
classmethod
defaults
Ġchunks
,,,,
ĠReason
$id
-ups
Ġdamn
Ġtrucks
Ġunlimited
Ġsculpt
ĠCards
Ġautor
ĠTesting
Ġdiese
shops
(payload
ĠPATH
ĠMemorial
Ġridiculous
egree
-winning
Ġrehab
Ġsophisticated
wpdb
ĉpath
_SYS
.speed
Ġsoap
suffix
Wrap
Ġenhancement
Ãī
Ãºb
Ġplaylist
Ġmixing
antidad
ĠRevision
ĠBeat
.inc
-way
encias
ulers
Cat
idel
ĠShip
.setColor
Ġthreatening
.modules
Ġafterwards
ĠDashboard
ĊĠĊ
Signal
Ġprimer
orneys
iciary
Ġligne
_predict
Ġaest
_https
>:
ĠLex
Ġrencontres
egral
scala
_family
ÃŁen
_sym
Ġuncertainty
ĠVALUE
Ġbroader
Ġhorses
ãģĿ
ĠKal
oba
_INET
ĠKill
jquery
amination
[@"
Ġmuj
FirstOrDefault
thenReturn
Che
/footer
Ġparks
asje
ĠGulf
Ġmodest
.Init
Ġprospects
Ġsvg
.Dialog
_NET
Ġ(($
Ġek
ĠWarning
ĠMK
<LM
iem
hetic
Ġix
think
-shadow
ĠEld
ĠNevada
ĠLeaf
ĠGROUP
Ġpromo
entine
ĉMap
ĠModels
ĠKrist
_kernel
-made
Ġcerr
Assets
ellar
Ġinvoked
.vue
Ġcultiv
Closed
Ġgenerates
ffffff
thesize
sqrt
ĠCastle
.car
Ġkeen
unda
ĠCrow
ĠSingh
ython
Ġbeans
larg
Awesome
uncate
Paths
oji
(curr
CONDS
Ġmim
Ġshoulders
Hard
astes
Ð°ÐµÑĤ
Ġconvince
decess
made
ĠCMD
.Im
Ġchaos
ensively
Ġcooling
Ġburied
('@
_Se
ĉĉĉĉĉĉĉĉĉĉĉĉĉĉĉĉ
.company
.submit
phant
Ġbootstrap
_help
à§
.dump
Ġdifer
_mapping
Ġcircular
Ġescorts
Ġbere
Ġgradu
ĠLegend
imedia
ĠBarcelona
Ġbeds
ãĢĬ
_volume
Ġtremendous
Ġscaling
Ġpins
enas
typeparam
Dashboard
renderer
Ġspi
Ġ&$
ĠSkin
almart
Ġhockey
Ġ'".$
Ġerrno
Ġbew
Following
.Module
erable
ĠMilitary
ĠRio
_available
ĠSurface
Ġstab
IFIER
ĠLIST
Ġdashboard
Ġclusters
.plugin
Ġjou
ĠDecor
Four
Ġdelle
iaz
inde
ching
ĠgetItem
.Address
mented
Americ
Plain
Ġusb
ĠPractice
_ment
.blue
Hint
Ġconnector
Ġinherited
Ð¸Ð²
Ġintervals
Ġcere
Ġud
Ġincon
.Exists
ĠMic
FK
(card
.Settings
Ġexhibition
ĠonPressed
Ġrestored
engu
.def
Ġrecv
encoder
atherine
(dest
azed
#endregion
sembl
,M
oby
ĠÐ¿ÐµÑĢ
.Call
Ġattendance
-border
Ġaddressing
Ãªn
ĠLev
Ġbash
bench
Credentials
Spacing
(of
_RESET
iguous
Ġcruel
Ġcrossed
Ġleur
ĠGolf
orrect
Ġpackets
ĠDataSet
Ġpartly
SEQUENTIAL
Ġindication
ĠSalt
acia
ĉinfo
ĠViewBag
onz
Ġeditorial
ĠArena
Ġsir
_Static
(socket
su
choose
.month
.My
Ã©ri
;font
does
Ġconverter
Ġsalv
Ġlr
Ġinfluenced
(feature
ĠQueens
lett
_MON
&amp
TouchableOpacity
OFF
Ġmetabol
(iter
Ġvitamin
ĠINDIRECT
autom
_public
Ġadjustment
Ġspecialized
windows
.addAll
Ġaccordingly
ĠJOptionPane
Ġcellspacing
Ġquad
Ġcreep
Ġoutlets
Ġpriest
_THREAD
ĠMarx
ĠByVal
Ġcual
Ġtemporarily
Ann
keleton
ĠLOC
auer
derive
Ġbehaviors
asename
ĠCentury
Ġhorrible
MESS
_List
wei
Pat
ĠChoice
_FROM
ĉline
.invoke
.Bottom
Ġnowhere
_export
Ġstruggled
.Appearance
ĠJButton
ĠJeremy
([[
Ġkicked
marshal
staff
esity
Ġquiz
_effect
mel
banner
ĠPIN
Ġinvention
Ġconsolid
Ġops
ĠBetween
jack
ernational
Ġsacrifice
agation
ĠJoy
Ġamendment
ĠSold
Ġprisoners
Ð°Ð½Ð½Ñĭ
Documents
usted
ĠLinearLayout
oso
_EM
.self
.Middle
)//
Ġ\'
Ġfucked
ĠMurray
Ġprofound
_ELEMENT
ulta
ilers
portfolio
June
tcp
modified
ĠTrace
ĠKel
alyzer
)=>
ĠRepair
_BE
Brand
uart
preview
Ġinitiatives
running
bang
ĉupdate
ĠCoach
Rich
Ġyoutube
Ġritual
appa
ĠRobinson
precision
////////////////////////////////////////////////////////////////////////////
Ġcelebrated
OTO
Ġinclusion
JP
Ġnotable
(_.
Managed
Ġguides
&nbsp
atedRoute
ĠAdjust
Ġcolored
_scores
ĠTesla
_progress
.inst
['_
.flags
Ġfclose
_OPER
Å¼y
_note
Ġtransgender
RIPT
Ġabsent
Ġamet
Ġoperand
ë©
Ġhood
toLowerCase
avo
ĠCircuit
ĠLind
=m
Ġsuppress
ĠMAP
iang
-admin
Ġsidebar
ĠBu
ĠHex
,F
ĠSignal
Ġtransparency
ĠFederation
/V
Req
Ġpulse
Ġtends
Numbers
%'
Ġdeport
datas
_UINT
_tra
oko
Ġ"?
compet
solete
undry
Ġoverlap
.ly
_summary
ĠLost
.Center
Ġdisability
.Serialization
Ġgeom
Ġ?:
ĠWo
Ġshipped
Ġugly
Ġexcitement
Ġexterior
Ġcheckout
Ġkur
,D
ĠAlaska
Ġsynthetic
ĠBudget
ĠSubscribe
ÈĻi
ĠYu
ĉquery
Ġtraged
assen
Ġaccommodation
Ġphysician
Ġrenamed
Ġtidak
zÄħ
Ġminus
nych
_EXCEPTION
threads
Ġtire
_created
ensure
Ġworthy
Ġexcuse
Ġcloth
.parentNode
/platform
ĠUFC
ĠGtk
unny
Ġgibt
keley
hum
(tx
ĉdev
Ġoutfit
doors
Ġfon
icut
volatile
Ġhomosex
Maximum
Ġexpend
Eq
onders
department
ĠPhysics
Ġparad
.Str
Ġsele
IFIED
Ġdelivers
ivan
Ġresponsibilities
Ġadvocates
ĠRID
.parameters
Metrics
ronics
ĠUITableViewCell
Absolute
ipse
ylum
MLElement
_VALID
<title
Dlg
paces
Ġsyndrome
beans
_database
ozilla
ĠMeg
DBG
Ġlub
BagConstraints
abad
Ġprojected
_BYTE
.SizeF
street
ĊĊĊĊĊĊĊĊĊĊ
ĠLOSS
Ġdirectors
/news
Ġnursing
ĠDone
.HTTP
discount
ĠRot
ToMany
Ġenabling
Ġaussi
osta
ĠĠĠĠĠĠĠĠĠĠĠĠĠĠĠĠčĊ
Ġhelicopt
ĠInside
isper
ĠAllah
ARCHAR
Ġrolls
Compare
XP
IndexOf
SUM
Ġassured
ĠPhysical
Endpoint
.Global
.detail
Ġtheft
.jupiter
Ġhumor
.Render
Alex
.cap
Ġbuffers
Ġdispose
tion
.present
zel
,P
Ġdesperate
.getColumn
Ġtwin
ìĸ
.can
Ġflee
ĠIranian
Ġsticky
ĠUTC
LT
////////////////////////////////////////////////
Ġlicensing
_POINT
ĠMaps
Ġlol
=models
-tab
ĠNash
_logger
torch
ĠCONSEQUENTIAL
NotEmpty
/react
Ġpf
Ġassertion
Ġsubsequently
_can
Ġpandemic
ogue
_ent
_Param
Research
Capture
Ġbeloved
dem
Ġextracted
Ġfights
ERC
(auth
positions
Ġreversed
(stack
Ġ_)
utoff
_flow
(Game
Ġexcluded
ĠCSV
cg
ĠTitan
pause
Ġcerca
Ġdumpster
Less
Ġkotlinx
asterxml
Ġpointers
Ġflows
ĠTun
ĠMainActivity
Ġdiscret
Ġcombinations
visit
_bind
ooting
dater
_lookup
.nio
Ġsweat
ĠRd
Ġscientist
ĠPixel
@NgModule
Playing
Ġunfold
Translate
ĠLawrence
ĠFIXME
Bill
ĠRIGHT
Ġwherever
Ġook
vidence
Ġ]];
ĠSkill
unistd
ĠðŁĻĤ
Ġfemales
ĠFred
Overall
ÙĤ
Ġessence
Ġthereby
Ġwounded
ĠDOWN
lesson
texture
Round
Ġautomated
ĠÐ¡
ĠUpdates
Ġshade
publish
ĠGear
=lambda
Ġlever
)+"
hill
Ġradar
rying
Ġ").
filled
Ġlineup
Ġdl
Ġworkspace
Vo
_dt
ë²
_Item
NSURL
.verify
ĠHawaii
God
March
Ġ[âĢ¦]
Ġpelo
urious
ĠPittsburgh
.It
Clean
>\<^
Ġios
sound
"];
Ġfreed
rottle
ĠLower
[count
Ġpale
ĠWayne
earth
_categories
UCK
.metadata
Ġsummon
HOME
Ġmanufactured
Ġdock
Ġcompetitors
_MODEL
okia
ĠHey
Î¿
Ġbackward
ĠPOSS
ropa
Ġcri
_OBJ
Transport
-high
Ġerotik
_slot
Ġartic
_framework
-serif
ĠSqlDbType
')(
+"/
Ġwore
Sil
Ġstoring
ĠPhase
uant
Ġbump
inho
Ġdign
Ġbacks
qq
(hash
Ġgeo
Ġtender
Logo
ĠMX
ĠArthur
essoa
_Ch
Ġbedrooms
="#"><
Ġthroat
insic
.integer
Ġprimitive
Truthy
Ġfacilitate
Ġcreativity
ĠDNS
Ġgra
uez
Ġcountless
ĠPoland
'M
ĠDist
Ġvest
Ġcertification
á»ĳ
held
extensions
(static
Ġgrades
ĠUber
ãģŁ
datos
ĠgetData
ĠCharg
ĠBS
.microsoft
.video
.direction
->{'
lua
apest
Ġboiler
erek
Ġdecides
.jar
ISC
ĠWords
(CON
EMPLATE
reeze
shots
apps
unted
.setName
::<
-bold
ê²
Longrightarrow
Ġunfair
Ġearning
Ġshelf
UREMENT
Ġidle
_MENU
.Custom
AGER
-"
_switch
because
)view
mare
_condition
ĠStarting
Mvc
(pre
dump
_LOCK
atetime
.callback
ĠCer
opol
ibrary
Ġreservation
ĉĉĉĉĉĉĉĊ
lector
graduate
Ġgenerous
Ġion
ricao
mq
_complete
(cursor
ĠFormControl
:center
Ġsubstitute
ĠPlanning
Ġpension
Ġrecommendation
ĠTags
Ġgef
Ġalbums
Ġwashing
roc
Ġtrains
atings
Ġexponent
ackbar
-ln
Ã¡g
.DataAnnotations
ĠEIF
ĠMalaysia
ĉPORT
onus
Ġclever
Ġpeu
ĠArguments
Ġdebugging
(right
'D
compute
Ġfinest
ORAGE
Ġspectacular
phrase
Ġindia
Ġlegendary
birth
Ġcomposite
Ġgrows
ĠTD
Ġepid
Ġlaunching
]][
Minutes
ĠCha
Ġcleaned
Ġwitnesses
ukan
ĉType
Ġhabe
paragraph
ĠJPanel
ĠHann
Ġvaried
ĠPokemon
ĠMUST
.visibility
opup
^[
.expand
Ġ"',
.fasterxml
_auto
ĠSheet
marker
Parcel
ews
ĠStrategy
-making
Ġunve
Ġtrailing
Ġclicks
ĠGetComponent
ĉcontent
IGENCE
ERNEL
NSMutableArray
Ġbreat
Ġharmful
Ġbesides
Ġboring
Ġbrutal
vang
(parse
quick
Ġpytest
Ġswitching
ĠìĦ
LER
ĉfont
Ġnett
(/\
toArray
Ġbreed
ĠCAR
ĠWeapon
Abs
tot
ĠsetName
aptive
Ġ:,
Ġescaped
orden
ĠPri
thumbnail
Ġdescriptions
/styles
ĠPCI
Ġalphabet
asticsearch
NOTE
Ġcialis
ĠGriff
Ġporque
Ġproteins
plays
Ġstating
Ġimagination
Ġfacial
ĠMechan
Ġarranged
_used
Ġarrangements
ĠPipe
hostname
Ġprovinc
Tit
.FlatStyle
ĠSplit
ĠLoader
.cc
Ġclinic
----------------------------
Ġbaking
ĠENT
neath
ANE
.EntityFrameworkCore
appers
.ic
ĠNgModule
ĠFORM
Ġ';
-profit
hw
enemy
ĠEye
Ġcaution
town
Ġurged
ĠJimmy
ynchronous
-sized
making
,{
]',
_Object
ahoma
Ġactivist
INVAL
ĠCommercial
ĠOrlando
(tab
ĠØ¨
Algorithm
Ġheritage
GetMapping
Ġfailures
rios
ativa
Ġtet
Ġcarpet
(Z
three
Ġdisclosure
.ERROR
_called
Ġdial
Ġoccasional
.Err
Ġfuncion
caffold
Ġreleasing
_Value
ĠVari
yellow
Ġstruggles
.cal
ĠDakota
ĉclose
Ġsandwich
Ġanalytics
Ġ**)
&#
ĠJos
Ġpassive
ATTR
Throwable
ĠMun
ĠUint
(disposing
arak
ĠLeaders
Ġaffecting
ĠitemView
Ġeconomics
fv
à¹Ģ
.rb
ĠOverall
Ġwealthy
Ġevolved
nda
ĠHus
restrict
umen
ĠAgricult
Ġexpires
Ġspokesperson
interval
ĠÃ¢
Ġqueen
(nil
ingo
Heap
Ùİ
Ġcomplain
Sym
ĠClone
ĠRu
ĠWILL
ĠCrystal
/content
ingen
ointment
LastName
avicon
ĠIBM
ĠDimension
anh
icipants
ĠAnne
.progress
Ġalgo
obil
ĠVoice
ĠFE
Ġgli
Ġved
Ġprevents
\Column
Ġfolk
etti
Ġmn
ĠCLASS
Ġdisplaying
ĠKl
ĠFerr
duto
.ib
Ġdados
'name
-space
Ġitalian
Ġinverse
Ġdense
uter
ĠIEnumerator
-sign
Ġnationwide
Ġpersona
Ġsolved
Ġdramatically
Logout
Ġgrav
Ġanalyses
ollo
Ġlamp
.team
ĠErot
=["
Ġdancing
Ġ?>/
Ġcater
ffe
ĠSha
ĠBos
ĠREQUIRE
ĠMonster
ĠRB
ĠIDE
Ġsuits
ĠformData
(theta
Ġspatial
=NULL
ĠSqlConnection
Ġà
ĠVenez
ĠMorning
Ġpublications
ĠNONINFRINGEMENT
firstName
uds
Would
_HEAD
Ġinvested
stable
fred
Ġcommander
SES
âĢĶa
anche
ĠMovement
ë³
Suite
Ġjurisdiction
ë¦¬
ĠBeth
jQuery
ĠIsa
Ġdental
,*
ĠLimit
iliation
="{
bast
Ġturb
isy
OOK
Ġadvocate
imag
LECTION
Ð»ÑĮ
(category
.dec
Ġuniqu
_sn
Ġattracted
ĠÃī
ĠRunning
_edges
ĠDisable
_AS
Ġnetworking
_branch
Having
toBeTruthy
GI
Ġcamps
sep
-part
ustralia
ĠReports
rito
Ġwaist
_plus
ĠWW
-person
April
Ġsar
.tar
Ġagricultural
tic
Ġtcp
ĠsetValue
agento
ĠAppe
piler
CADE
Ġanche
atcher
Ġcomics
Ġlbs
_segment
']=$
itters
icher
GINE
Ġutilize
ĠCursor
_expression
Ġdag
<long
Ġrhyth
Ġconsultation
Yet
_MAC
could
Ġ'\\
ĠVo
ĉhttp
Ġgs
pher
-grid
James
Jul
Ġschon
Ġtensorflow
ĠLOGGER
amas
Ġscipy
Ġconviction
.ag
Ġadministrator
Ġnun
"group
Por
Ġnurse
expression
aky
ĠHeavy
.opt
.getAll
Ġoverl
/",
_country
ĠGENER
_route
ĠDal
Â´
oload
Ġuncomfortable
(menu
Ġhostname
Ġcalculations
-click
Ġprotective
ãĤ¯
_Form
ungs
Actual
mf
ĠProcessing
ĠInventory
(matrix
appropriate
weg
ija
Ġchr
Ġrifle
-wsj
kar
Ġindependently
IOS
Ġconsistency
vn
/system
ĠChanges
Ġexpose
icients
Ġrelate
ĉnext
udes
Ġglasses
FXML
......
ĠPdf
Ġapprove
Ġ{\
Ġexiste
))(
ARENT
ĠLatest
ĠNigeria
.Interfaces
Ġremoves
Enemy
Ġenforce
verts
ĉpos
_texture
WARD
ĠINCIDENT
(container
Ġdefending
ĠRX
ĠHook
bris
ĠFlask
Gray
visibility
ĠRedirectToAction
erral
_elem
Ġreson
frontend
_variables
ateria
Ġ+"
aveled
RIX
Ġdeficit
_Check
YYYY
ToOne
spy
Ġunited
endent
Ġpode
ãģĮ
CAT
(fmt
ĠBonus
Ġreck
Âº
Modules
Ġvacuum
Radio
ĠDAMAGE
Pen
ĠParker
ĠReally
_neg
pending
Ġnominee
ĠCategories
ĠUltra
Weapon
Ġdefender
Iss
ĠGender
ĠDress
Ġimprison
Ġbankrupt
imensional
PHA
ĠStrateg
ĠPROFITS
Ġpatri
////////////////////////////////////////////////////////////////////////////////
delegate
ĠforState
Ġdevoted
_make
Ġterrorists
ĠSnap
_nav
ĠAA
ĠIan
ĉapp
Placement
_hdr
<K
Ġsang
stroke
-Q
><?=
-model
avana
ĠWang
ĠĠĠĠĠĠĠĠĠĠĠĠĠĊ
ĉinit
Ġentrepreneur
ativo
Love
-over
Water
Ġmods
gence
Techn
>x
.Task
money
ibaba
ĠSpecific
ĠLinear
_OPT
HashCode
(Player
.ContainsKey
Ġcollapsed
transparent
_RANGE
Viewer
(cfg
Ġsorting
Ġinfected
ĠNach
Ġaccommodate
.elements
_PART
ĠSexy
=get
(year
Ġxhr
:]
owski
Ġsummar
ĠÂ¿
Ġinte
Ġworkflow
ĠTaiwan
versions
Ġsurprisingly
Ġoptical
Ġproces
Ġdisagree
Ġnuevo
ĠCAM
sorted
leases
istle
Ident
ĉevent
jected
Chunk
Vars
.provider
Ġproceedings
Ġinclusive
Ġartwork
endants
seen
Ġlig
Ġmakers
_fun
Ġlengths
PathVariable
[item
à¸µ
Dead
FFFFFF
ĠUrban
uples
ichen
(nullptr
.spec
,System
URATION
(job
Ġtracker
ÅĻ
ĠMR
ĠSQLite
Ġdto
Ġmint
ĠIntroduction
cao
Ġquestioned
Ġfitted
revision
sq
Ġmig
_units
_async
Ġflick
Ġnotre
}`,
Filters
Ġmundo
_days
Ġfrm
utc
Ġvals
ewidth
ĠGenerator
ĠArtist
ĠIDs
ĠArticles
reater
ĠComponentFixture
.=
Ġrou
-no
.bukkit
egg
ĠDiff
atics
ÑĥÑĩ
ĠCharlotte
bye
ĠVik
ĠBrow
Ġlv
ĠGib
-wing
GLIGENCE
(Il
ĠEngineer
.Wait
ĠPictures
Ġrhet
Ġthermal
Ġpraise
ĠSpider
Pause
ĠBaker
Ġslower
_enqueue
Ġdisappeared
ĠTicket
INUX
_LOCAL
Ð°ÑģÑģ
@Injectable
community
GestureRecognizer
Ġscales
Ġ-(
/'+
ĠSit
Ġexecutives
arding
Ġadvers
Ġbackwards
ĉcontext
ĠHamp
ĠPF
ĠDeck
ĠCraig
American
Ġbell
Ġprol
ufen
Ġrng
arshal
ĠSimply
firstname
shore
July
Ġmortality
Helpers
Ġbenchmark
emade
Ġorganisations
.gson
ĠTextField
Ġcivilians
.Arrays
ĠMississippi
Ġintermediate
getUser
_cluster
Relative
foreign
.querySelectorAll
ForeignKey
Ġreasonably
Cards
ĠKam
ĠThor
Ġroller
-element
ĠCurrency
ddie
ALLY
ĠRA
Ġpermet
aaaa
Ġhomework
ĠVit
Ġmold
ĠFer
[start
Ġstatistical
Ġscary
_HOME
.Begin
Construct
ogenic
ĠDEALINGS
ĠtambiÃ©n
ixon
.ind
acre
Ġtransforms
ĠNap
.Block
ussia
piration
ulent
Ġceil
Clause
naire
TES
Ġneat
STD
ĠRegExp
perform
:)
Ġunions
Ġsublic
Ġwinds
loating
glich
Ġpagination
Skill
Apply
ĠOperator
istogram
Ġqualities
Cross
Ġdecom
],"
ĠJuan
.modal
.Child
ĠRoger
STITUTE
:CGRectMake
alette
Ġsta
aside
Ġblur
ĠWa
ifetime
reed
controls
Ġbins
UIS
ĠRou
ĠDemo
-awesome
ĠChain
Ġhasta
ĠBart
.KEY
Ġvendors
nofollow
ĠDest
_builder
Ġargues
_answer
goto
ĠRESULT
ĠMON
Ġpoder
oons
_CASE
Ġreplic
Ġfinancing
ĠDATE
cern
_track
ties
/logo
ĠNEGLIGENCE
getType
>T
bet
girl
ĠINCIDENTAL
-site
.trigger
ĠLisa
_inputs
Ġrelatives
LoggedIn
Configure
IK
.accept
Resume
ĠDraft
Ġ*>(
ĠWA
edian
erness
ĠLayoutInflater
othy
Ġobligation
Subscribe
Ġthumbnail
exist
Ġinsisted
ĠUICollectionView
ĠAngular
Ġtablets
ĠImpact
aho
Ġcharacteristic
gd
Ġ=================================================
ourt
`.
Appro
Coordinate
Remember
Ġmarine
]=='
ĠAdministrator
.getDefault
Ġforgot
ĠStructure
Vue
arsing
moment
kw
_cursor
Attack
Ġathletic
Ġdiagnosed
Ġende
House
ĠPARAM
Ġwiki
ĠOpp
Ġconservation
Ġsnd
_tem
substr
ĠCape
.sim
UTION
anan
âĢĻun
Ġgy
-work
Ġcompelling
='#
ĉsub
Ġdirectories
íĬ¸
Ġtouches
outines
.Collection
schedule
.lat
ĠDoctrine
CAA
ĠRefer
Ġshifts
Ġlikelihood
preter
ĠFemale
Ġintercept
Ġlou
Ġrug
ĠCrown
Ġ****************************************************************************
-product
Ġprompted
ungle
docker
ĠTu
ĠUnique
_Error
ulos
ĠâĦ
Ġ(`
Getting
_scal
ĠEnh
Ã¼t
Ġsustained
Ġpatches
Ġprosper
ĠGaza
_light
Ġincons
ĉĉĠĠĠĠĠĠ
SF
CN
ĠCollins
(*)
Ġcompilation
Ġconsequence
,...
Ġdm
ĠBLOCK
Cluster
Ġski
(argc
Tuple
Ġjoins
ĠSheriff
War
indi
Ġcommented
HOST
Ġinvitation
apanese
Ġpermits
precedented
_zone
ĠAmy
_RD
Minimum
Ġinvocation
.enable
ichten
-owned
"id
_POINTER
Fac
Ġspecifications
Ġnomination
Ġgp
<(
Ġrobots
ĠJerry
Ġholders
Ġwand
cms
.Toast
ĠIList
Based
zoom
/style
ĠBeck
Men
Ġcontributing
Ġundo
ĠOH
ĠaddObject
Ġeigen
signup
Ġdistant
PARATOR
ĠMari
ĠmÃ¡
Emp
Ã³s
ĠìĪĺ
evt
+j
park
ĠStay
ĠDun
Ġsoy
>%
azines
Ġtiempo
(me
present
.This
Ġeditors
FIELD
.Work
ĠUniverse
Ġdrunk
.timer
Ġaltered
ĠNar
ëł¥
.Active
idor
.deltaTime
Ġawkward
&quot
ĠSafari
Ġtricks
MENTS
division
Ġvarying
ĠHighway
Ġphotographer
ĠStewart
Ġlasting
.Pre
.amazonaws
ĠLuck
.Description
ĠNaz
neg
ĠcÃ³
<<"\
ĠSurv
ĠUnc
Recipe
.BorderStyle
Ġmodifications
-at
ATFORM
hdr
ako
Ġsublicense
ĠJump
Ġbeim
ĠManhattan
.bool
_hw
ÑĤÑĮ
Bin
Ġgateway
"":
ĠUIS
:"+
-def
ĠRegular
/testing
ĠĠĠĠĠĠĠĠĠĠĠĠĠĠĠĠĠĠĠĠĠĠĠĠĠĠĠĠĠĠĠĠĠĠĠĠĠĠĠĠĠĠĠĠĠĠĠĠĠĠĠĠĠĠĠĠ
stringstream
Ġdispar
Ġmobil
-read
ĠAdapter
ĠChampions
Ġscheduler
Ġkills
ĠMultiple
irror
Ġgods
ADO
akte
ĠUsuario
.circular
Ġrecept
ĠExpr
Ġelderly
Ġnicely
Ġbeste
Want
Ġclassical
.sprite
objc
ĠMason
Ġsistema
.Black
eso
ĠZeit
Ġdivid
Ġenters
_subject
ĠPlanet
.warning
ĠGram
_tokens
Ġhouseholds
_customer
userName
cross
Ġpione
Ġassists
_SM
ibo
Ġloyal
Ġuseless
#elif
ĠUltimate
Come
gel
Ġdich
xyz
ikel
obra
_scan
ĠInterior
ĠNice
Ġplac
ĉtarget
Ġviral
asso
()/
unde
ĠAdobe
Os
visited
ĠOW
ĠFeed
ĠSequence
Ġmanages
inson
ĠLouisiana
{})
ĠHab
ĠLD
Ġbip
prites
(elem
.hibernate
Ã©lÃ©
Ġohne
_transaction
Ġannunci
Published
ĠHonda
ĠTam
ĠPacket
_selector
Ġchallenged
Processing
-hover
Ġtrainer
_cancel
ĠNSDictionary
abric
ĠMLS
_sensor
Ġshrink
ĠFX
threshold
ĉHX
-mark
`.`
Scheme
(full
_writer
ĠSys
Ġfled
ĠCin
-widget
ĠPrevious
Gender
_question
Feed
Ġscrut
(prefix
ãĢĤãĢĤ
Ġinfections
Parts
Ġhierarchy
_DELETE
ĠPatient
_pay
Ġpromoted
Ġìĭ
Ġcivilian
Ġagriculture
ĠPiece
Ġstance
utsche
Assign
.ACTION
Fig
_radius
ĠSync
ducer
failure
ensed
ptime
BM
_datetime
quivo
QUEUE
Appear
Ġsummit
:void
Ġvine
onne
_TRANS
.green
_cc
Ġhungry
Ġ">
Extract
izens
Ġsolver
Notify
Ġenglish
ĠShopping
interfaces
REQ
Ġilleg
ĠUIImageView
Ġdisconnect
ĠUntil
ĠConservative
@Column
Ġshifted
Ġfich
Ġdla
Ġshoe
ularity
_RESP
Weather
UIApplication
.iterator
Ġaging
.Parent
owie
(equal
ĠConv
/default
Ġmeasuring
.prev
.IsValid
.Fat
ĠsÄĥ
keywords
without
Ġsovere
Ġexchanges
Ġmelt
Ġislands
ĠIntegr
Ġjumping
Ġgle
Ġjournalism
Ġdated
Localized
ĠRefresh
Particle
Ġaa
ĠSTRICT
Ġbod
.Process
_AUTO
ĠPublished
every
Ġtechnological
lsx
Ġirrit
Additional
Ġdelimiter
_language
-area
boys
ĠTube
Ġwat
Ġmechanics
_owner
Spell
ĠStories
.AppendLine
TableView
hem
stick
ollower
IFF
ĠUV
ollision
SUB
Ġcomparable
Ġdonde
sales
llvm
OTTOM
ĠPurpose
Lab
Ġinterviewed
ois
asil
.setId
ĠInstruction
-->
ĠModified
ationally
ĠMeeting
#region
Ġrouting
.focus
ĠYouth
<D
ĠNag
contacts
Ġforming
Ġmie
',['../
ĠBP
Ġappet
ĠTeacher
ĠTP
Ġannually
outedEventArgs
ĠSpeaker
Ġrename
CFG
("//
/pages
ĠprÃ©s
ĠSpell
.Allow
ĠINTERRU
Ġ(#
_Generic
.imshow
_tim
-face
(&(
atinum
Ġrevolutionary
ĠHours
rain
Ġanytime
Ġabb
.jsp
ScrollView
ĠTruth
Ġanticipated
Ġaccent
.checked
Ġspecifies
Ġcaf
Ġcellpadding
Ġcooked
ĠHugh
peek
_RATE
Ġdorm
IVITY
.Controller
(part
.constraint
Ġinvasion
MOVE
Ġgluc
lename
Ġamen
english
ĠSwitzerland
pest
.collect
Nib
ĠDict
ĠEmb
(subject
Ġoutrage
Ġdeciding
Ġsentenced
Fecha
"A
Ġquer
ĠfontFamily
Ġquadr
-Y
_CACHE
Ġanalyzed
Ġgaining
ĠAgainst
ĠSoul
tau
Ġlightweight
ĠTF
ĠEffects
.Types
.addClass
Ġvegan
.'"
ĠExplorer
.detect
.shift
Ġobligations
lastName
Ġassociations
ĠTimeSpan
unter
ĠFresh
Compatible
Pub
idges
.option
vari
.hashCode
Ġgeb
.section
-not
ĠSubmit
TN
registry
_media
Ġnaj
fft
Ġmate
-third
Ġpockets
esta
Ġbent
ĠNord
Ġretailers
ĠMorris
Wrong
ĠÅĽ
Ray
.ec
ĠBind
_HAND
(non
isValid
Ġsimilarly
_LIMIT
Ġdynamics
Ġdistinction
ãģĨ
<N
Ġorth
ĠToyota
ĠKate
ĠLS
orie
ĠSprings
Ġfreak
lastname
_MULT
-step
"(
ADDR
Ġentertaining
_CONF
Ġdecoded
Ġstreak
Ġwaited
Ġnotified
roduced
visual
.LayoutParams
esian
fits
spring
ĠBernie
UserDefaults
Ġpedest
Appearance
ĠWiki
ĠNOTICE
Ġssh
Ġdurante
ĠZip
Ä±r
ĠNATO
Ġtwelve
Ġroyal
ï¸
Ġmerchant
ĠFurniture
,X
Ġfolders
ĠGate
ĉfunc
pick
_usuario
ĠVerm
mention
urpose
Ġalerts
xious
_sig
ĠFu
Ġ(:
Ġdumb
Ġaccurately
RB
-screen
ĠVER
jour
Ġromance
ucceed
.choice
Ġadip
_dims
Serializable
ãĤĭ
.job
Ġprog
uchar
Ġgently
ĠRSS
ictured
_ENABLED
ĉlabel
awks
ĠEnsure
remember
ìłķ
Ġtransmit
{{$
.Transaction
urse
_relative
Ġsized
ĠXX
ĠPrincess
ĠLarry
ĠprÃ³
ĠÑģÑĤÑĢ
Ġsisters
estruct
Ġcheckpoint
:length
ĠCarlos
/icon
_TARGET
Tokens
Ġpatience
ĠSelected
qty
.showMessage
Ġwildlife
ĠProps
bm
-arrow
Ġparcel
firebase
ĠBenjamin
cesso
.tim
ĠGarc
.any
ĠHOWEVER
ĠKo
Ġgrabbed
_frames
ĠobjectAtIndex
ĠADVISED
Ġsubur
ĉGL
-length
ìĭľ
ĠPotter
_buff
.gui
ĠEncoding
Elect
-message
Ġï¿½
ĠÈĻi
ĠArgumentNullException
Ð°ÑĨÐ¸
Ġminimize
Ġresponding
$_['
ĠIndividual
Ã¡c
ĠINTER
Ġmasturb
ĠBin
('$
ëĵľ
Ġopenly
Ġ><
Ġunto
ologically
ĠMul
VIDIA
Ġslim
ĠCommissioner
(on
Ġunderneath
/db
vote
(Message
ĠPope
Defined
Ġswift
urf
Ġadapted
SEL
Ġrevenues
Ġdivine
=y
Gradient
_act
Ġ/*!<
Ġpolygon
ĠFDA
ĠCarr
atables
(stdout
Ġrefriger
Ġcoordin
avorites
ÑĪÐ¸
Ġcompassion
ĠPOSSIBILITY
-secondary
uracy
Ġcompromise
_AV
_os
Ġbeside
ĥĿ
Ġln
.plugins
Capacity
alah
.bin
ĠCRC
_balance
ĠflexDirection
Ġambit
Ġnickname
ĠForces
CLE
ĠShell
Ġsail
ĠWriter
ĠAlice
dw
ĠIndians
ĠMarshall
_SRC
Ġnormalized
ĠJag
ãĤĴ
zeit
rpc
ÃŃc
.inline
Ġtravers
_numeric
Ġutilities
Ġevac
INPUT
ĉregister
MX
ĠCampbell
Ġdatasets
Ġdemanded
ĠinitialState
gan
Ġei
Unexpected
-web
trait
,Y
ĠTodd
Ġskeleton
Ġoptimize
ĠUpon
ĠStObject
Ġaplic
.'</
ACC
alous
ĠhashCode
ĠBib
INAL
Ġinvisible
Ġheter
Ġsafer
}//
.theme
.navigationController
_mesh
skill
ĠViol
Â²
ĠEOF
ĠKi
ymmetric
Ġmaxlength
Å£
friends
ĠEvans
Ġlemon
Ġ(.
Slide
ĠThailand
ĠCann
Ġamend
Ġcir
Ġsilly
esimal
_pic
processor
JavaScript
Ġevident
_di
>P
vron
.UN
Ġpainter
izarre
Ġlav
Ġpom
preg
=function
(serial
ifica
uming
ãģĤ
-op
UCH
ĠHend
.propTypes
Ġyo
Ġroutines
Ġcaring
Sem
Ġreserves
Ġpriorities
redits
ISTR
ContentType
ĠSchw
/media
Ġestr
Ġclimbing
-week
cherche
sensor
ToArray
ĠMontreal
Ġclouds
ĠInjectable
ĠRice
Ġpropaganda
_provider
Ġindoor
Ġinaug
Ġdiplom
Ġmessaging
_mut
Ġkw
ONS
arians
RPC
-ray
ĠSor
mall
Ġmarketplace
Ġvtk
Ma
ogan
igi
Ġsponsored
ĠDani
.SEVER
>'.$
multipart
ĠWol
ĠtableName
ĠUsername
BackgroundColor
Ġfright
_EMAIL
September
_vals
opia
Ġspotted
-Ch
ĠdataSource
ĠRequestMethod
ĠReplace
-do
ahn
ĠPhD
NON
gement
ĠThr
Ġquietly
Ġtorture
Ġteas
ĠCY
Ġatr
development
-detail
Ġlighter
Ġarguing
Ġdeserves
Ġcurriculum
_CONTEXT
ÅĤy
HITE
ĉID
/uploads
Ġtits
reo
_drop
.UTF
Ġpickup
Ġgrocery
ĠPure
Ġeasiest
Phil
.feature
("*
Ġinvestor
tok
Ġjar
Los
âĢĶâĢĶâĢĶâĢĶâĢĶâĢĶâĢĶâĢĶ
.queue
-speed
Mal
umblr
ĠCONST
ĠHRESULT
ĠDance
(filePath
Ġattributed
à¥į
ĠBund
coins
ĠsÃ£o
Ġpir
personal
Ġprelim
Ġpropose
ĠTL
]])
ĠSubscription
ĠKre
,len
.FirstOrDefault
)--
_products
.GetBytes
Ship
Ġencrypt
ĠSG
ĠMyst
hir
Ġiterate
Ġintend
.mockito
Ġchapters
(angle
ĠVlad
ResponseBody
ĠAbd
deal
Ġbarriers
-outline
bill
ĠFalls
_second
.include
.ceil
Ġoccupation
phony
.moveTo
ĠJennifer
ASTER
;"><
ĠEnabled
Ġterminate
ĠIo
lations
ĠTHEORY
Ġearliest
Ġrack
ĠScar
shake
chip
Ġuv
Ġalliance
Ð¿Ð¸Ñģ
ĠGOODS
zione
ĠVI
Ġ{-
Ġfiltering
Ġmiscon
.DockStyle
Ġbush
Ġjunk
ĠQUE
Ġhooks
Ġfirmware
Ġmiddleware
dic
ĠOakland
Ġarrives
Payload
pixel
]|
ĠstartDate
.PRO
_audio
Ġmidfield
igidbody
ĠSwiss
ĠClip
ĠDump
ĠTextBox
Ġgeh
yield
ods
Ġreferendum
Backend
ĠCream
Ġdominated
ĠArchive
Ġriders
.prepareStatement
Ġquando
Ġchef
wiki
inel
ampling
("\\
Ġsag
_proxy
ãģķ
pdo
.getElementsByTagName
Ġdemonstration
ĠNPC
Ġarchivo
endance
Ġefficiently
(actual
.tableView
Ġmush
Ġbears
_threads
jas
ahun
Ġneural
Ġdesigning
ĠGDP
Ġlifted
ĠJoint
ĠInclude
ĠGiants
Ġwithdrawal
ĠRent
native
ĠSeek
gression
_CPU
\S
ĠShield
Ġsolic
Ġboom
yecto
Ġmanufacture
ĠâĢĭ
Ġbbox
Ġearthqu
ollectors
:@"%
Ġloops
Je
alking
ĠWhats
ĠBoys
.book
ARGE
_pixel
Ġsuspects
Î¹
usp
ĠBMW
ieces
(person
ĠPodcast
Ġbou
(Item
Ã»
(Input
HttpGet
Ġburg
)^
BOARD
*/,
Ġgulp
ĠBenn
Ġdecks
.statusCode
Ġacute
Ġhug
ugu
Ġpled
,"%
hape
ĠMaine
.real
Ġdalam
ĠMinor
.Float
disp
Ġtl
Ġencount
=>$
Ġfg
tees
ĠRecomm
Ã¤l
Ġchemistry
Blocks
OID
Ġforex
ĠAppend
Ġ{*
ĠSupply
CGFloat
(bl
Ġate
adora
Ġgust
Associ
FETCH
.serial
widgets
ardless
iefs
_FULL
ernetes
ĠPred
ØŃ
ubernetes
ĠLaura
Ġlabeled
Highlight
Ġannoying
/update
(description
Ġintimid
$c
.AP
Ġ[]*
ĠEXIT
.Host
ĠOPEN
.sendMessage
_camera
_tile
Ġtherm
onomous
Ġdisadv
Ġnaar
indexOf
ĠPP
.protocol
AFE
Ġtextures
################################################
umbai
.stats
ĠGE
Ġie
ĠSTD
ĠMann
.reflect
KB
Ġdive
.wav
/*----------------------------------------------------------------
/settings
.lifecycle
Ġdaughters
orus
uber
NING
stri
ĠTip
Ġzn
Ġswitched
inet
uffy
ĠTransportation
(conf
frica
ĠXL
ĠLead
_percent
<Map
Ġthrust
orb
ikk
Ġtrauma
Accessor
ĠFit
ĠStringBuffer
expl
(screen
Ġaudiences
ĠOPTION
_round
[node
beh
->__
permissions
ĠDetermine
.Man
Ġadvances
.InputStream
Ġstrongest
ĠeBay
Ġ#-
Ġdirname
ĠSMS
Ġmedications
Ġamended
Ġchurches
ĠImperial
$row
ĠMadison
ĠInsp
Ġaffair
Ġpsychology
vh
Ġseverity
âĢĲ
Ġstrips
AH
vertising
Ġconse
IMAGE
ĠStats
ĉsc
.Cursor
Ġfreeze
sson
(xml
ĠSusan
.tile
eded
ĠĠĠĠĉĉĉ
uelle
ĠMitchell
based
Operand
ĠFF
ĉstrcpy
ounces
ildo
.executeQuery
Ġapproaching
ĠSeven
Ġnuts
Ġric
assignment
Ġcalculator
ĠMurphy
ĠBou
íĦ
Ġbutt
Ġticks
Projects
ilib
.textColor
mov
_logo
(template
ĠINIT
ĠimageView
scriptions
ORITY
Consumer
Ġunprecedented
Ġtourist
Ġbron
Ġcontractor
Ġlicence
ĠNam
(transform
_ATT
Pref
ĠGam
Ġvessels
Ġhav
Later
.ToLower
Ġurls
Ġbreakdown
Ġpenalties
Ġfoster
ĠUE
Ġclue
comed
-main
Ġpts
Ġcounted
icts
/post
Ġgetattr
Ġping
ANCEL
Ġpec
antom
ĠBlueprint
ĠEventEmitter
ĠlÃ¤
Ġstraw
(comp
'une
>N
-client
esModule
-base
Ġretreat
_simple
ĉĉĉĉĉĉĠ
fee
ControlItem
Ġsubscribers
please
ĠEff
Ġpound
ĠBytes
ĠTea
_activity
Ġmaxim
Ġopcode
BSD
.constant
;}
ombres
Ġcareers
Ġspreading
-expanded
ĠOrd
amarin
Ġmobility
Unfortunately
akk
NL
_redirect
ĠPG
ĠSensor
bol
tap
_MEMORY
ĠUIAlert
plitude
Website
ĠLogo
love
[ind
Ġaltogether
Ġwondered
Ġesper
ĠLiberal
Ġoss
Ġelit
Ġstiff
odox
_mentions
ĠDouglas
_pid
ĠCK
ĠinitWithFrame
.blog
pkg
anghai
QUIRED
uu
Ġmkdir
ATAL
Ġunh
inces
sth
Ġhypothesis
Ġcata
ĠTB
ĠClar
Ġpredecess
Ġsituated
-world
))/
Ġheadlines
.stat
Ġoutbreak
spath
_FLAGS
ĠServletException
Sun
FROM
ĠDir
ãĥ»ãĥ»ãĥ»
_coord
ĠOptim
Monitor
.bit
XXX
Ġtodas
feld
ÑĢÐ¸
imir
Ġpolitically
Ġmolecular
Ġtraded
Ġ{{$
ĠSwedish
Ġ'@/
_REAL
Ġwarehouse
today
,L
orp
<section
-br
yme
ĠUserService
Ġliberty
Ġmomento
(Image
<size
Sch
Ġjog
iology
arently
Ġquantum
ĠAbu
Ġrim
Ġmana
FontSize
Building
stairs
AILABLE
Ġ&'
Ġsect
Ġsigh
(batch
.IContainer
poll
ĠCorps
Îµ
aru
ĠKay
.range
_clicked
ĠRoberts
.Network
finish
-Man
Ġcolleges
ĠFine
film
Ġreminded
Ġgesture
outil
Ġthreading
Ġobjet
Ġtours
activated
.mkdir
=user
Ġrede
fÃ¼
_SYSTEM
pv
Ġcongr
Ġmassasje
Ġpractition
University
Ġtabindex
Ðĺ
Sets
Ġcounties
guest
fan
Ġworden
.di
Ð½Ð°Ñĩ
Â¿
igDecimal
Ġshore
ĠgÃ¶
Ġrepairs
Ġhelpers
Ġcentered
OLLOW
ĠmapStateToProps
Ġcents
<A
Ġexpectation
October
Ġbgcolor
cales
.CON
ĠVel
Ġcrying
-season
Ġfunctioning
_LOCATION
Ã¼ss
bery
Para
ominator
-le
Ġethical
hashtags
emplo
ĠnÃºmero
(activity
.Stop
.strftime
ILD
Ġtoe
ĉNode
ĠPuerto
Ġexecuting
ĠGUID
Ġopposing
alph
Ġexhibit
_flash
Ġmeille
ĠjsonObject
Hero
ainted
_DOM
Ġwil
Ġslope
ĠmÃ¥
ĠIraqi
Ġorganize
ĉjQuery
HUD
shine
.we
ĠSkills
ponsor
Ġconclusions
Ġreforms
Ġreluct
named
ĠOliver
-looking
Ġfog
ĠHO
ĠFried
Ġinevitable
ĠDataGridView
Hour
illes
logical
Ġconnectivity
.twig
ĠKyle
(dst
-Sh
ĠStudios
(Level
.jet
_PROTO
-decoration
OTHER
Ġreadily
.Parameter
Ġmultiply
ĠLIB
armed
Ġsooner
_ES
Ġfossil
ĠAnc
âĢľThis
lodash
Python
Ġhistogram
western
Ġinfant
Ġcoordinator
Ġnib
:m
Ġrespected
Ġdefinit
&T
_pad
ĠTrigger
thal
ĠimageNamed
Ġbeaten
ĉrc
ĠPalace
Ġhazard
Ġisolation
_rc
contre
OUTPUT
Ġreign
ĠPlate
ATES
Ġflux
Ġpacks
.getSelected
Ġparticipated
Ġneedle
-depth
::::::
-law
inspace
onitor
=no
ĠAtomic
ĠBrain
Editable
-sc
redential
ĠPerry
kie
.stroke
(Intent
Ġunity
umlah
Further
Ġprze
ĠsÃ¸
ãĤĬ
ĠPROCUREMENT
ĠHousing
Ġattorneys
Ġcompose
attering
"What
draul
Ġstraightforward
Instant
.JTextField
Ġtrades
Ð»Ð°
Ġ{!
Ġlately
IMG
ĠAld
ĠINNER
Ġcartoon
.Source
FALSE
Ġdough
fen
(rect
DataTable
Nick
ĠButter
reads
_comments
ENV
ĠConnecticut
-FIRST
ĉĉĉĠĠĠĠĠ
achi
.Msg
rection
Ġrelaxed
Ġshaft
Ġef
ĠAdding
Ġbreach
Ġï¼ļ
rama
Ġconducting
Ġ(;
(gl
ĠCAUSED
ashi
ĠFLAG
ĠCommerce
ĠINTEGER
hours
ĠSchools
Ġnucle
Again
proj
Ġseventh
EMPLARY
(mock
_SPEED
>false
Ġspa
ĠNear
ìķ
Ġintrig
_members
wave
Ġanalysts
_OS
edin
ĠFri
Ġretrieved
Regular
_obs
EXPORT
')}}"
"class
__((
bucket
Ġstro
ĠPatch
ystick
fulness
apos
Da
ĉĉĉĉĉĠĠĠ
Ġenrich
unordered
hole
Cong
<Product
ĠCurt
(the
_lower
Ġavoiding
Ġbuzz
Ġviable
uba
-is
arel
Ġacted
-details
à¸ĩ
ĠTheory
ĠPun
ĠAnonymous
Ã¨res
ĠVision
_sem
asha
Ġcelebrity
ĠendDate
Ġpopulate
Ġcuis
quant
floor
Ġglobally
Ġcruise
ĠStanley
Ġbikes
.getConnection
Ġpoorly
_other
amping
odi
_ADMIN
.colors
ĠGaming
STRUCT
QR
IDs
(arguments
_aux
(Event
_PRIVATE
ĠTrek
Ġdownloads
mutable
_STRUCT
(wx
Ġdomains
jspx
ĠViagra
Commands
Js
.cfg
ContentPane
ĠEditText
Attach
ĠARM
positive
ĠGenerated
Ġseized
=:
Ġelectronics
ĠAppComponent
.equalsIgnoreCase
Doctrine
disk
ĠPolitical
CHO
<F
ĉheight
ĠBug
.le
ikh
Ġmilliseconds
Ġconstitu
mag
.nl
-range
anggal
',[
ropolitan
ĠÃľ
ĠUC
[...]
